▁xxunk	0
▁xxpad	0
▁xxbos	0
▁xxeos	0
▁xxfld	0
▁xxrep	0
▁xxwrep	0
▁xxup	0
▁xxmaj	0
<unk>	0
.	-3.33684
▁the	-3.34418
,	-3.45649
s	-3.70254
▁a	-3.88
▁to	-4.06481
▁and	-4.06657
▁of	-4.0693
'	-4.10669
br	-4.28919
<	-4.30184
▁/>	-4.31384
▁is	-4.41402
▁I	-4.48785
▁in	-4.54197
▁it	-4.57134
▁this	-4.72407
▁that	-4.72682
t	-4.81313
▁	-4.86495
▁movie	-4.96532
▁was	-5.00715
-	-5.08852
ing	-5.19467
▁with	-5.19621
▁for	-5.27383
▁film	-5.32719
▁The	-5.35565
ed	-5.36253
▁but	-5.44528
▁on	-5.46517
▁you	-5.4748
▁as	-5.48025
▁"	-5.50701
▁be	-5.52271
▁have	-5.55962
▁not	-5.57554
▁(	-5.57949
▁are	-5.61731
ly	-5.6941
"	-5.7263
▁one	-5.73831
▁like	-5.86483
▁all	-5.89013
d	-5.90123
▁they	-5.90696
y	-5.91135
▁just	-5.92126
▁at	-5.93411
▁his	-5.96697
)	-5.96946
▁so	-5.98353
▁he	-5.98496
▁or	-6.02153
▁an	-6.02615
▁from	-6.02778
▁by	-6.05456
▁who	-6.07245
▁out	-6.07924
▁about	-6.14316
?	-6.14944
e	-6.18256
▁It	-6.24016
▁some	-6.25821
▁has	-6.25993
▁bad	-6.28
!	-6.29183
▁can	-6.30507
▁good	-6.31136
▁there	-6.31443
▁even	-6.32567
▁no	-6.34281
n	-6.3636
▁if	-6.37717
▁would	-6.38708
▁up	-6.40912
...	-6.42248
▁were	-6.43407
▁what	-6.4609
▁more	-6.47427
▁had	-6.47535
▁her	-6.4833
▁me	-6.48639
m	-6.4974
▁This	-6.50654
▁time	-6.50659
▁really	-6.51219
▁only	-6.51222
The	-6.52055
▁could	-6.55014
▁when	-6.55153
▁see	-6.56837
▁get	-6.5944
▁my	-6.59863
▁very	-6.61036
▁do	-6.63595
I	-6.63682
▁been	-6.65081
▁their	-6.65677
▁much	-6.67685
▁than	-6.67792
▁story	-6.68102
▁which	-6.68854
ve	-6.69692
▁don	-6.71213
▁make	-6.7164
▁people	-6.73652
:	-6.73702
a	-6.74396
▁she	-6.7528
▁because	-6.75576
er	-6.77396
re	-6.7885
▁acting	-6.80097
▁A	-6.81223
▁plot	-6.81241
▁any	-6.81394
▁into	-6.81476
▁other	-6.83277
▁made	-6.84161
▁we	-6.86694
▁-	-6.87129
▁too	-6.91553
▁how	-6.94413
▁them	-6.94953
▁will	-6.95631
▁watch	-6.96257
▁movies	-6.96596
▁seen	-6.99627
▁way	-6.99841
▁think	-7.00147
▁character	-7.00736
▁better	-7.02242
▁over	-7.02326
▁him	-7.02437
▁characters	-7.02591
▁off	-7.0272
▁know	-7.03776
▁But	-7.05345
▁most	-7.057
r	-7.05758
▁first	-7.0581
;	-7.07232
▁being	-7.08213
▁look	-7.10096
▁then	-7.10495
al	-7.10604
▁well	-7.11338
▁ever	-7.12264
▁your	-7.12294
▁And	-7.13228
▁never	-7.15108
▁should	-7.15337
▁did	-7.15408
▁thing	-7.1676
▁where	-7.19221
▁two	-7.19643
▁i	-7.19939
▁say	-7.20124
▁something	-7.21544
▁scenes	-7.21772
▁show	-7.22936
▁scene	-7.24363
▁little	-7.24637
▁didn	-7.25813
▁go	-7.2693
▁'	-7.27539
▁many	-7.27801
▁watching	-7.28865
▁There	-7.29278
▁films	-7.29437
▁does	-7.29821
▁after	-7.30428
▁actors	-7.31173
▁end	-7.31905
▁also	-7.31955
l	-7.32578
▁doesn	-7.3346
).	-7.33636
or	-7.33914
o	-7.34025
▁S	-7.3435
ll	-7.34578
▁nothing	-7.35432
▁If	-7.35992
▁actually	-7.36846
▁here	-7.3692
/	-7.39052
▁few	-7.39297
▁want	-7.40058
p	-7.40983
▁these	-7.41076
▁back	-7.41352
▁through	-7.43869
▁minutes	-7.44335
▁work	-7.44626
▁why	-7.45115
▁great	-7.45395
▁find	-7.45434
es	-7.46815
▁funny	-7.47237
▁real	-7.47568
▁going	-7.47593
▁life	-7.48775
▁such	-7.4938
▁worst	-7.51269
▁thought	-7.5162
out	-7.51695
▁pretty	-7.51905
▁those	-7.52226
▁before	-7.52547
▁script	-7.52558
),	-7.52578
▁director	-7.52739
▁lot	-7.53046
▁He	-7.53213
▁In	-7.53783
▁still	-7.545
▁man	-7.55208
in	-7.56124
A	-7.5631
▁best	-7.56519
▁horror	-7.56521
i	-7.56668
▁guy	-7.5785
▁original	-7.58855
and	-7.59028
▁another	-7.59147
S	-7.59639
c	-7.59736
▁far	-7.6145
▁down	-7.61688
▁B	-7.61709
▁least	-7.6236
▁seems	-7.63288
▁got	-7.65625
▁part	-7.65692
▁give	-7.65935
▁around	-7.6597
▁kind	-7.6597
▁whole	-7.66145
▁same	-7.66349
▁fact	-7.66999
▁enough	-7.67829
▁while	-7.67851
▁old	-7.68201
▁might	-7.68583
▁every	-7.69782
▁love	-7.6998
the	-7.70667
▁cast	-7.71113
▁isn	-7.73023
▁its	-7.73378
▁believe	-7.73866
▁point	-7.73933
▁stupid	-7.74381
▁though	-7.75279
▁reason	-7.75562
▁action	-7.75652
&	-7.77266
▁awful	-7.77281
▁take	-7.77954
▁un	-7.7813
▁feel	-7.78803
▁years	-7.78818
▁must	-7.78945
▁am	-7.79498
▁They	-7.79542
▁makes	-7.79816
▁terrible	-7.80203
▁big	-7.80466
▁C	-7.82071
▁anything	-7.8235
on	-7.82456
▁again	-7.82745
▁So	-7.82938
▁put	-7.84746
en	-7.85748
▁long	-7.85825
▁new	-7.8609
g	-7.86179
▁things	-7.86285
▁You	-7.86324
▁hard	-7.87268
th	-7.87313
▁poor	-7.87378
▁interesting	-7.87429
▁come	-7.87559
▁P	-7.87595
▁done	-7.88417
▁bit	-7.8855
▁re	-7.88732
▁main	-7.89103
▁right	-7.89459
▁quite	-7.89543
▁effects	-7.89651
▁What	-7.90221
▁trying	-7.91305
▁may	-7.91436
▁supposed	-7.91487
▁TV	-7.92468
▁gets	-7.92525
▁probabl	-7.92967
▁looking	-7.93699
le	-7.94169
▁wasn	-7.94213
an	-7.95173
b	-7.95219
▁camera	-7.95265
▁role	-7.95292
▁shot	-7.95432
T	-7.95529
▁someone	-7.95935
▁series	-7.96814
▁money	-7.97287
▁now	-7.97462
▁waste	-7.97617
▁almost	-7.9839
▁comedy	-7.98833
▁found	-7.99324
▁music	-7.99681
--	-7.99743
▁boring	-7.99839
▁mean	-8.00348
▁last	-8.00883
▁away	-8.00916
▁girl	-8.01033
▁looks	-8.0122
▁As	-8.02139
▁2	-8.02769
▁saw	-8.0305
u	-8.03071
▁idea	-8.03184
▁seem	-8.03373
▁D	-8.03435
▁screen	-8.03624
▁young	-8.04595
▁start	-8.04933
▁anyone	-8.05394
▁F	-8.05499
▁rather	-8.05691
ers	-8.06043
▁times	-8.06289
it	-8.06813
▁special	-8.0686
▁name	-8.07438
▁turn	-8.08325
▁else	-8.09031
h	-8.09343
▁tell	-8.0961
▁half	-8.10315
▁worth	-8.10448
▁ending	-8.10885
se	-8.10981
This	-8.11136
able	-8.11207
▁between	-8.11342
▁book	-8.11803
▁since	-8.11933
▁fun	-8.12261
ur	-8.12381
▁low	-8.12416
▁No	-8.1279
▁us	-8.13537
▁worse	-8.13677
▁high	-8.13833
▁making	-8.13835
▁budget	-8.1385
▁T	-8.14346
▁sense	-8.14839
▁laugh	-8.15053
▁sure	-8.15139
▁woman	-8.15486
▁own	-8.1598
▁horrible	-8.16075
▁version	-8.16075
".	-8.17291
te	-8.17467
▁course	-8.17915
▁DVD	-8.17947
▁day	-8.18144
k	-8.18201
▁watched	-8.18263
▁either	-8.18536
▁said	-8.18538
▁actor	-8.1867
▁always	-8.19161
▁sex	-8.19518
▁She	-8.19542
ity	-8.19631
▁left	-8.19784
▁couple	-8.19794
▁goes	-8.19948
▁We	-8.20022
having	-8.20022
ion	-8.20217
▁yet	-8.20461
▁help	-8.20584
▁read	-8.20956
▁dialogue	-8.21073
▁To	-8.21105
▁That	-8.2114
▁fan	-8.21199
▁family	-8.21714
ic	-8.21782
▁rest	-8.22427
▁completely	-8.23201
▁line	-8.23739
▁wrong	-8.24307
D	-8.2451
",	-8.248
▁world	-8.24988
▁become	-8.24997
▁use	-8.25103
ness	-8.25222
st	-8.25273
▁set	-8.25281
▁understand	-8.25705
▁guess	-8.25716
est	-8.26367
P	-8.26652
▁short	-8.26978
▁women	-8.27007
▁together	-8.27664
less	-8.27689
▁ga	-8.27774
▁10	-8.28019
▁For	-8.28578
▁mind	-8.28596
▁comes	-8.2862
ie	-8.28703
It	-8.28921
▁maybe	-8.29083
ri	-8.29546
▁Not	-8.2957
▁play	-8.30326
▁let	-8.30337
▁place	-8.30478
ar	-8.30892
ce	-8.3106
▁video	-8.31188
▁piece	-8.31536
▁sound	-8.31637
▁When	-8.31925
▁getting	-8.31959
▁seeing	-8.32201
▁person	-8.33183
E	-8.34095
▁try	-8.342
one	-8.34702
▁next	-8.34733
▁each	-8.34736
▁sort	-8.34784
▁seemed	-8.35383
▁men	-8.35415
▁once	-8.35915
▁head	-8.36033
▁instead	-8.36218
as	-8.36612
▁b	-8.36622
▁3	-8.36729
R	-8.36896
f	-8.37028
ation	-8.37044
▁car	-8.37661
▁keep	-8.37708
▁All	-8.37849
▁played	-8.383
▁both	-8.39084
▁blood	-8.39218
▁three	-8.39228
▁production	-8.39235
▁cheap	-8.39613
▁close	-8.39685
▁audience	-8.39808
▁less	-8.39942
▁dead	-8.40065
▁need	-8.40198
M	-8.40382
▁dur	-8.40431
▁full	-8.40682
▁near	-8.40766
▁decent	-8.40777
ra	-8.40816
▁kill	-8.41222
▁E	-8.41356
▁ridiculous	-8.41554
▁felt	-8.41554
▁school	-8.41637
▁used	-8.41851
▁Well	-8.41857
up	-8.42019
▁everything	-8.42383
▁everyone	-8.42391
▁usual	-8.42408
▁M	-8.4252
▁under	-8.43036
▁One	-8.43479
ir	-8.43666
▁Hollywood	-8.43937
▁American	-8.43991
▁absolutely	-8.44136
especially	-8.44742
▁case	-8.44747
▁simply	-8.44758
▁however	-8.44765
C	-8.44839
▁flick	-8.45581
▁killed	-8.46047
▁friends	-8.46112
ies	-8.46195
▁given	-8.46759
▁writing	-8.47231
▁itself	-8.47232
▁crap	-8.47235
▁shows	-8.47331
▁entire	-8.47693
▁title	-8.47795
▁night	-8.48034
▁John	-8.48142
▁plays	-8.48523
▁job	-8.48873
K	-8.48884
▁annoying	-8.48919
▁performance	-8.48943
▁call	-8.49266
▁My	-8.49428
▁black	-8.49752
▁problem	-8.49807
▁won	-8.50606
O	-8.50673
w	-8.50778
▁lead	-8.5079
▁lines	-8.51233
at	-8.51263
z	-8.51338
B	-8.51636
▁care	-8.51677
▁along	-8.51926
▁home	-8.52312
▁went	-8.52382
▁came	-8.52999
▁K	-8.53019
▁face	-8.53177
▁5	-8.53188
▁house	-8.53269
▁Why	-8.53333
(	-8.53681
▁How	-8.54399
▁1	-8.54451
▁Even	-8.5509
▁dialog	-8.55136
▁monster	-8.55206
▁year	-8.55401
▁R	-8.55501
▁different	-8.55578
▁moments	-8.55598
▁act	-8.55791
▁himself	-8.55867
▁direction	-8.55884
▁enjoy	-8.5625
▁doing	-8.56966
▁friend	-8.57151
▁called	-8.57393
▁playing	-8.57501
▁hand	-8.57713
although	-8.57731
▁unti	-8.57749
▁However	-8.57836
is	-8.58019
▁O	-8.58546
el	-8.59253
▁At	-8.59509
▁already	-8.59551
▁save	-8.60234
▁beginning	-8.60497
▁Ed	-8.60576
▁kids	-8.60694
▁guys	-8.60732
▁second	-8.60837
▁Don	-8.61061
▁--	-8.61118
▁lack	-8.61252
▁expect	-8.61367
▁manage	-8.61446
ist	-8.61874
F	-8.61894
▁attempt	-8.62252
la	-8.62404
▁dull	-8.62419
ne	-8.6253
▁OK	-8.62533
man	-8.62629
▁talk	-8.63088
to	-8.63128
ment	-8.63473
▁recommend	-8.63832
▁boy	-8.63941
▁run	-8.64045
."	-8.64124
▁quality	-8.6436
▁remember	-8.64875
▁nice	-8.64999
▁star	-8.65261
	-8.6535
▁de	-8.65965
▁wanted	-8.66002
In	-8.6603
▁hope	-8.66467
▁Oh	-8.66653
▁H	-8.66759
but	-8.66768
▁G	-8.67243
▁On	-8.67338
▁mother	-8.67393
▁true	-8.67403
▁matter	-8.67928
▁small	-8.68258
▁fair	-8.68354
▁cinema	-8.68367
▁myself	-8.68385
ought	-8.68613
▁mess	-8.68944
▁zombie	-8.69048
▁truly	-8.69411
▁tries	-8.69416
▁dark	-8.69419
▁THE	-8.69458
▁white	-8.69471
▁written	-8.69504
▁our	-8.6965
ch	-8.6977
▁wonder	-8.70257
▁takes	-8.70377
▁hell	-8.70442
▁death	-8.70553
▁non	-8.71006
▁classic	-8.7123
▁shots	-8.71491
▁group	-8.71506
▁stuff	-8.71511
▁tried	-8.71527
▁dumb	-8.71536
▁early	-8.71548
▁style	-8.71658
▁example	-8.72168
H	-8.72247
ine	-8.7228
3	-8.72374
▁thinking	-8.72491
▁etc	-8.72619
▁later	-8.72644
ish	-8.72674
▁complete	-8.73047
▁gore	-8.73106
ther	-8.73265
▁picture	-8.73268
▁episode	-8.73322
▁hour	-8.73403
ro	-8.73468
▁involved	-8.73884
▁Now	-8.73991
▁side	-8.74082
us	-8.74599
▁With	-8.74827
ting	-8.75242
▁4	-8.75321
▁cover	-8.75353
▁slow	-8.75494
ous	-8.75667
▁humor	-8.75814
N	-8.76557
▁poorly	-8.76654
tally	-8.76659
▁appear	-8.76689
▁kid	-8.76707
▁killer	-8.76877
▁wife	-8.7699
▁scary	-8.77058
▁lame	-8.77453
▁daughter	-8.7781
▁stop	-8.77854
ally	-8.78252
▁obvious	-8.78862
▁cut	-8.7906
▁local	-8.79203
▁predictable	-8.7921
▁violence	-8.79224
▁After	-8.79367
ter	-8.79673
▁live	-8.80052
am	-8.80117
▁L	-8.80136
▁Mr	-8.80378
▁past	-8.80534
▁hit	-8.81303
▁leave	-8.81437
▁stay	-8.81514
L	-8.81959
lo	-8.8198
ive	-8.81991
▁liked	-8.82137
no	-8.82299
ick	-8.82499
▁bunch	-8.82695
▁against	-8.82815
▁c	-8.82836
▁W	-8.83082
G	-8.83242
▁hate	-8.83358
▁wouldn	-8.83649
▁children	-8.83895
▁room	-8.84138
▁hours	-8.84227
▁top	-8.84885
▁behind	-8.85087
!"	-8.85121
▁entertaining	-8.85171
▁bring	-8.85511
▁dog	-8.8569
▁stars	-8.86153
▁genre	-8.86305
▁sever	-8.86312
▁lost	-8.86317
▁fight	-8.86361
▁cannot	-8.86458
*	-8.86462
▁weak	-8.86565
▁sad	-8.86803
il	-8.87025
fi	-8.87302
▁Some	-8.87372
▁cheesy	-8.8754
▁silly	-8.8754
▁drama	-8.8757
▁break	-8.87635
▁son	-8.8767
▁based	-8.87675
If	-8.88232
▁parts	-8.8843
▁Then	-8.88513
▁history	-8.88807
▁spend	-8.88809
▁often	-8.88835
▁viewer	-8.88881
um	-8.89021
▁throughout	-8.89023
▁obviously	-8.89164
ul	-8.89609
ey	-8.89783
id	-8.89948
▁able	-8.89974
▁yourself	-8.90059
▁pick	-8.9008
▁self	-8.90091
▁cool	-8.90118
▁move	-8.90156
▁Also	-8.90206
▁art	-8.90606
ry	-8.90887
▁beautiful	-8.9098
W	-8.91723
▁heard	-8.91764
▁took	-8.91903
▁talent	-8.92266
▁add	-8.92336
▁sub	-8.92391
▁De	-8.92416
▁performances	-8.92534
▁wasted	-8.92584
▁female	-8.92637
▁actress	-8.92648
▁war	-8.92719
▁certainly	-8.92852
▁none	-8.93153
▁e	-8.93596
▁late	-8.93741
▁sit	-8.93753
▁started	-8.93789
tic	-8.93882
▁child	-8.93934
▁themselves	-8.93952
▁knew	-8.93953
▁running	-8.93959
▁wish	-8.93964
▁possible	-8.93988
▁evil	-8.94011
▁buy	-8.94029
▁exactly	-8.94031
▁extremely	-8.9404
▁pay	-8.94047
▁type	-8.94135
▁p	-8.94552
▁cave	-8.9476
et	-8.94781
▁premise	-8.95285
▁score	-8.95292
▁disappointed	-8.95302
▁order	-8.95495
▁credits	-8.95558
▁mention	-8.95582
▁interest	-8.9561
▁seriously	-8.95612
▁directed	-8.95715
ty	-8.95762
▁saying	-8.95817
▁gun	-8.95986
per	-8.95987
▁bother	-8.96482
▁figure	-8.9654
▁beyond	-8.9664
▁major	-8.96653
ling	-8.96854
▁word	-8.97
1	-8.97143
he	-8.97363
▁says	-8.97394
▁final	-8.97456
....	-8.97709
There	-8.97747
▁fans	-8.97806
▁space	-8.98007
▁large	-8.98023
▁except	-8.98067
▁Of	-8.98103
▁rent	-8.98408
▁happen	-8.98664
▁st	-8.9872
▁shoot	-8.98896
▁serious	-8.99083
Y	-8.99253
▁suspense	-8.9939
▁opinion	-8.99395
▁Gein	-8.99396
▁fine	-8.99488
▁Just	-8.99539
▁coming	-8.99863
ily	-8.99918
▁His	-9.00024
▁starts	-9.00174
▁comments	-9.00239
li	-9.00311
▁badly	-9.00318
▁consider	-9.0041
▁clear	-9.00624
▁avoid	-9.00804
▁plain	-9.00804
▁average	-9.00854
▁box	-9.00922
▁Maybe	-9.00978
▁sequel	-9.01128
▁rating	-9.01203
▁joke	-9.01231
▁fails	-9.01405
▁writer	-9.01424
▁wear	-9.01546
▁Jim	-9.01686
▁aren	-9.0192
▁hero	-9.02011
▁straight	-9.02231
	-9.02232
▁perhaps	-9.0229
ad	-9.02324
▁First	-9.02441
▁number	-9.0262
▁moment	-9.02671
▁happened	-9.02722
▁Joe	-9.02738
ent	-9.02756
▁feeling	-9.03016
And	-9.03025
▁Man	-9.03124
huge	-9.03164
▁wants	-9.03182
do	-9.03219
▁shown	-9.03272
▁basically	-9.03689
▁single	-9.0369
▁told	-9.03716
▁80	-9.03797
▁review	-9.03998
▁pull	-9.04038
▁definite	-9.04243
▁*	-9.04571
sh	-9.04917
▁write	-9.05125
▁kept	-9.05152
ge	-9.0516
▁Movie	-9.05217
▁hold	-9.05246
▁across	-9.05359
not	-9.05724
But	-9.0589
▁air	-9.06215
▁subject	-9.06646
▁trash	-9.0665
▁support	-9.06674
▁husband	-9.06733
▁sorry	-9.06748
▁...	-9.06775
▁U	-9.06843
me	-9.06879
▁hear	-9.07013
▁soon	-9.07413
▁gives	-9.0769
▁deal	-9.07716
▁h	-9.07736
▁jokes	-9.07757
So	-9.07854
▁decide	-9.07884
ful	-9.07896
▁days	-9.08138
▁above	-9.08162
▁remake	-9.08189
▁pathetic	-9.0819
▁cop	-9.08235
▁anyway	-9.08241
▁pointless	-9.08258
▁father	-9.08277
of	-9.08483
▁opening	-9.08501
▁light	-9.08574
▁die	-9.08593
▁voice	-9.08703
▁comment	-9.0877
▁human	-9.08776
like	-9.08908
▁talking	-9.09043
▁reviews	-9.09214
v	-9.09377
ia	-9.09678
▁store	-9.09699
▁spent	-9.09703
▁sh	-9.09736
▁somewhat	-9.09785
▁brother	-9.10302
nt	-9.10314
▁girls	-9.10816
▁20	-9.10936
?"	-9.1105
▁using	-9.11182
▁material	-9.11261
▁cinematography	-9.11268
▁Hitchcock	-9.11292
▁message	-9.11308
▁walk	-9.11472
▁turns	-9.11804
▁effort	-9.11934
▁game	-9.11978
▁expected	-9.12041
?)	-9.12224
▁V	-9.12237
▁J	-9.1237
▁middle	-9.12848
▁90	-9.12971
▁ago	-9.12978
▁others	-9.13195
▁zombies	-9.1348
▁ask	-9.13604
4	-9.1361
What	-9.13687
▁mostly	-9.13948
▁post	-9.14204
▁imagine	-9.14482
▁bored	-9.14511
▁typical	-9.14531
▁Michael	-9.14582
!!	-9.1459
▁Unfortunately	-9.14658
▁eyes	-9.14714
▁ten	-9.14983
▁feature	-9.15009
be	-9.1502
so	-9.15252
▁villain	-9.15669
▁town	-9.15695
time	-9.15789
▁words	-9.15791
▁experience	-9.15817
▁St	-9.1587
▁fire	-9.16012
ut	-9.16116
▁excellent	-9.1612
▁somehow	-9.16185
▁forced	-9.16394
▁co	-9.16641
▁falls	-9.16789
▁level	-9.16958
which	-9.16994
▁pass	-9.17249
▁check	-9.17277
ow	-9.17404
▁whe	-9.17444
ner	-9.17581
▁f	-9.17587
▁problems	-9.176
▁attention	-9.17767
▁chance	-9.17772
▁excuse	-9.17772
▁New	-9.17777
▁Robert	-9.17869
credibly	-9.17938
▁Bad	-9.1795
▁apparently	-9.17955
▁learn	-9.18091
age	-9.18107
▁sci	-9.18243
▁Do	-9.1828
▁m	-9.1838
▁age	-9.18419
▁shooting	-9.18445
2	-9.18759
▁total	-9.1878
▁An	-9.19067
by	-9.19211
▁release	-9.19218
▁throw	-9.19293
ol	-9.19295
ate	-9.19455
▁sometimes	-9.19472
▁strong	-9.19503
▁editing	-9.1953
▁While	-9.19541
▁utter	-9.19559
▁gone	-9.19609
▁God	-9.19737
▁needs	-9.19796
▁forward	-9.19833
▁Be	-9.20206
de	-9.20322
▁island	-9.20363
▁ex	-9.20367
▁novel	-9.20377
ap	-9.20424
ian	-9.20435
▁minute	-9.20567
if	-9.20907
▁haven	-9.20912
▁sick	-9.21185
▁amount	-9.21207
▁among	-9.21255
▁overall	-9.21259
▁doubt	-9.21303
▁thriller	-9.21305
▁Or	-9.21481
As	-9.21581
ton	-9.21607
▁w	-9.21744
▁fall	-9.21746
▁direct	-9.21836
▁upon	-9.21862
ard	-9.21867
▁taken	-9.21912
▁rip	-9.21939
!!!	-9.22117
▁garbage	-9.22941
▁footage	-9.22979
▁despi	-9.23098
▁appears	-9.23328
▁finally	-9.2338
▁gay	-9.23729
▁twist	-9.24202
▁happens	-9.24333
line	-9.24474
▁weird	-9.24529
▁gang	-9.2475
taking	-9.24757
op	-9.24791
▁NOT	-9.24794
▁please	-9.24804
▁hair	-9.24815
▁lives	-9.24929
To	-9.24938
▁flat	-9.2501
▁Sci	-9.25031
▁fill	-9.25073
off	-9.25322
▁explain	-9.25327
▁hop	-9.2534
▁finish	-9.25997
▁writers	-9.26072
▁15	-9.26094
▁present	-9.26097
▁wait	-9.2613
▁Re	-9.26541
▁stories	-9.26546
▁alone	-9.26551
▁background	-9.26557
▁fake	-9.26565
▁IMDb	-9.26566
▁five	-9.26591
▁David	-9.26613
▁fast	-9.26624
▁political	-9.26624
▁god	-9.26748
▁particularly	-9.2687
▁works	-9.27028
▁cliché	-9.27484
▁value	-9.27821
▁creature	-9.27829
son	-9.27964
▁previous	-9.28049
▁suppose	-9.28121
▁police	-9.2839
▁soundtrack	-9.28419
▁believable	-9.28433
▁Jane	-9.28444
Fi	-9.28533
▁From	-9.28609
▁due	-9.28665
ma	-9.28769
x	-9.28837
ag	-9.28942
▁career	-9.29003
▁holes	-9.29281
ical	-9.29481
for	-9.29502
▁needed	-9.29545
▁shock	-9.29725
▁hardly	-9.298
▁dis	-9.29807
ex	-9.29873
▁nor	-9.30082
▁water	-9.30283
▁accent	-9.30283
▁Van	-9.30325
▁third	-9.3035
▁count	-9.30367
▁Who	-9.30373
▁crew	-9.30392
▁Most	-9.30406
▁failed	-9.30437
▁Y	-9.30611
▁hot	-9.3094
▁speak	-9.31071
▁stand	-9.31095
U	-9.31331
unless	-9.31546
led	-9.31644
go	-9.31746
▁heart	-9.31848
▁actual	-9.3188
▁known	-9.32118
▁whatsoever	-9.32206
▁modern	-9.32261
▁reality	-9.32384
▁including	-9.32412
even	-9.32414
!)	-9.32509
▁decided	-9.3256
▁cause	-9.32768
▁Let	-9.32809
9	-9.33174
ance	-9.33264
om	-9.33389
▁result	-9.33595
▁sets	-9.33611
▁effect	-9.33661
▁Christian	-9.33704
▁d	-9.33943
▁strange	-9.33987
▁laughing	-9.3403
side	-9.34046
ha	-9.34202
▁Italian	-9.34206
▁list	-9.34235
▁copy	-9.34521
▁clearly	-9.34645
▁Che	-9.34769
ng	-9.34894
ger	-9.34933
▁g	-9.35239
giving	-9.35622
▁means	-9.35681
▁agree	-9.35885
▁English	-9.36168
▁favorite	-9.36171
▁normal	-9.36172
▁disappointing	-9.36196
▁okay	-9.36207
▁barely	-9.36246
▁laughable	-9.36313
▁body	-9.36336
V	-9.36344
▁Lee	-9.36385
▁considering	-9.36974
▁killing	-9.37066
▁elements	-9.37225
▁dress	-9.37246
nd	-9.37743
▁begin	-9.37838
▁certain	-9.37868
▁credit	-9.3788
▁Sandra	-9.38208
▁vote	-9.38211
▁sister	-9.38212
▁Instead	-9.38232
▁creepy	-9.38256
▁entertainment	-9.38269
▁front	-9.38297
ism	-9.38299
▁unfortunately	-9.3835
▁storyline	-9.38355
un	-9.38464
▁released	-9.38543
▁oh	-9.38555
▁ship	-9.39021
5	-9.39063
▁attempts	-9.3938
▁filmmakers	-9.39418
▁con	-9.39464
who	-9.39539
way	-9.39843
▁situation	-9.39896
▁sequence	-9.39901
▁similar	-9.39925
▁sexual	-9.39958
▁realize	-9.40097
▁power	-9.40193
▁possibly	-9.40291
▁potential	-9.40291
▁television	-9.40291
▁Jones	-9.403
▁James	-9.40364
▁Although	-9.405
▁produced	-9.40503
▁follow	-9.40996
▁Hell	-9.4102
ized	-9.4186
▁eye	-9.421
▁nudity	-9.42419
▁project	-9.4242
▁crime	-9.42422
▁admit	-9.42422
▁wooden	-9.42426
▁girlfriend	-9.42428
▁pure	-9.4243
▁song	-9.42437
▁fell	-9.42449
▁concept	-9.42466
ke	-9.42486
▁whatever	-9.42522
▁Every	-9.4256
▁30	-9.42622
▁cr	-9.42713
▁points	-9.42826
all	-9.43404
▁fighting	-9.43405
movie	-9.43499
▁enjoyed	-9.43546
8	-9.43888
▁season	-9.442
▁producers	-9.44221
▁four	-9.4457
▁easily	-9.44593
▁various	-9.44593
▁disappointment	-9.44594
▁paid	-9.44598
▁7	-9.44602
▁purpose	-9.44606
▁Dead	-9.44613
▁super	-9.44633
▁bed	-9.44637
▁thin	-9.4464
▁slightly	-9.44679
▁redeeming	-9.44689
▁change	-9.44742
▁reasons	-9.4479
▁outside	-9.44861
▁missing	-9.44958
▁catch	-9.44962
▁simple	-9.45081
ho	-9.45402
▁ends	-9.45463
les	-9.45476
▁Ver	-9.45562
▁events	-9.45745
▁acted	-9.45935
▁kick	-9.46031
▁leading	-9.46033
ub	-9.46104
▁party	-9.46247
▁pro	-9.46281
▁eat	-9.4629
oo	-9.4646
ot	-9.46561
▁Co	-9.46566
mo	-9.46657
▁difficult	-9.46815
▁CGI	-9.46815
▁caught	-9.4682
▁blame	-9.46822
▁compare	-9.46827
▁slasher	-9.46877
ta	-9.46916
▁odd	-9.46973
▁free	-9.47052
▁forget	-9.47055
istic	-9.47448
▁rented	-9.47588
▁entirely	-9.47737
ck	-9.47805
▁named	-9.47936
▁door	-9.4794
▁sucks	-9.48409
im	-9.48462
▁perfect	-9.4871
▁By	-9.48746
▁painful	-9.48749
▁brain	-9.48842
▁create	-9.48855
men	-9.4903
▁became	-9.49088
▁giant	-9.49088
▁parents	-9.49088
▁roles	-9.49103
▁wrote	-9.49115
▁male	-9.49148
▁quickly	-9.49249
▁Watch	-9.4934
em	-9.49345
▁laughs	-9.49351
▁Bo	-9.49425
ring	-9.49883
▁sounds	-9.50208
land	-9.50236
")	-9.50262
▁6	-9.50263
▁murder	-9.50327
▁bar	-9.50602
▁deliver	-9.50653
▁hands	-9.50669
pa	-9.50724
dy	-9.51018
tro	-9.51093
All	-9.51093
▁reading	-9.51127
▁important	-9.51164
▁relationship	-9.51189
▁demon	-9.51332
▁road	-9.51417
▁respect	-9.51421
▁deep	-9.51441
▁anymore	-9.51445
▁Nothing	-9.51548
▁Star	-9.51625
bo	-9.51636
▁focus	-9.51646
we	-9.51808
▁showing	-9.52213
▁land	-9.52277
▁knows	-9.52397
▁names	-9.52405
▁Dr	-9.52438
▁mentioned	-9.52459
You	-9.5302
▁class	-9.53066
▁ride	-9.53084
ably	-9.53173
▁fl	-9.53266
▁particular	-9.53454
▁hilarious	-9.53484
▁German	-9.53515
▁business	-9.53775
▁treat	-9.53788
▁atmosphere	-9.53794
▁choice	-9.53794
▁wild	-9.53794
▁team	-9.53795
▁Bullock	-9.53795
▁future	-9.53797
▁standard	-9.53797
▁70	-9.53801
▁development	-9.53806
▁screenplay	-9.53806
▁herself	-9.53808
▁steal	-9.53816
▁stick	-9.53821
▁unbelievable	-9.53839
▁period	-9.53842
ted	-9.53893
▁intended	-9.53894
▁rock	-9.53965
der	-9.54129
▁songs	-9.54183
king	-9.54303
▁woods	-9.54317
io	-9.54348
co	-9.544
▁Her	-9.5443
vi	-9.55077
▁bigge	-9.55267
that	-9.5575
▁surprise	-9.55972
▁deserves	-9.56002
▁chase	-9.5605
▁wall	-9.56115
▁viewers	-9.56191
na	-9.56212
▁channel	-9.56233
▁common	-9.56236
▁disaster	-9.56246
▁adaptation	-9.56254
My	-9.56305
▁setting	-9.56309
▁moving	-9.56329
▁phone	-9.5634
▁control	-9.56455
▁surprised	-9.56512
▁19	-9.56787
▁remind	-9.56825
▁directing	-9.57026
▁pre	-9.57071
▁musical	-9.57076
▁makers	-9.57083
nother	-9.57353
▁meant	-9.57539
▁j	-9.57589
▁beat	-9.57679
▁open	-9.57745
▁today	-9.57948
▁note	-9.58174
▁comic	-9.58186
day	-9.58461
os	-9.58487
▁escape	-9.5865
▁Flynn	-9.58733
▁country	-9.58742
▁ghost	-9.58746
▁Japanese	-9.58765
▁accident	-9.58783
▁build	-9.58888
▁members	-9.58942
▁filmed	-9.5899
▁Like	-9.59006
▁building	-9.59296
red	-9.59343
ER	-9.59367
▁clichés	-9.59598
▁walking	-9.59639
▁Ch	-9.59891
▁expecting	-9.60231
budget	-9.60522
ep	-9.60612
old	-9.60728
▁ho	-9.60853
tion	-9.60905
ure	-9.60932
▁positive	-9.60937
▁recent	-9.60977
ant	-9.60992
▁working	-9.60999
▁per	-9.61005
erhaps	-9.61218
▁neither	-9.61297
▁living	-9.61297
▁Eddie	-9.61298
▁amusing	-9.61298
▁confusing	-9.61298
▁crappy	-9.613
▁French	-9.61307
▁t	-9.61318
▁clever	-9.61322
▁military	-9.61328
▁color	-9.61342
▁violent	-9.61349
▁cult	-9.61401
▁Mar	-9.61451
▁mark	-9.61477
▁Yes	-9.61597
▁portrayed	-9.61726
▁Me	-9.61892
pe	-9.62127
va	-9.62547
▁Here	-9.62622
▁Mi	-9.63011
▁view	-9.6308
▁meets	-9.6335
▁destroy	-9.63445
ial	-9.63458
ake	-9.63575
J	-9.63728
ary	-9.63812
▁MST	-9.63892
▁allow	-9.63904
▁secret	-9.63924
▁church	-9.63929
▁dreadful	-9.63929
▁stuck	-9.63939
▁amateurish	-9.6394
▁Horror	-9.63961
▁Himesh	-9.63982
▁mere	-9.63982
▁nowhere	-9.63999
▁documentary	-9.64003
▁Richard	-9.64026
▁theater	-9.64054
▁Al	-9.64074
▁student	-9.64109
▁thrown	-9.642
▁folks	-9.64237
▁changed	-9.64391
uff	-9.64437
▁wonderful	-9.64439
▁area	-9.64614
▁interested	-9.64873
▁win	-9.65058
▁apart	-9.65204
ack	-9.65261
ball	-9.65824
lie	-9.65953
▁mix	-9.66154
▁include	-9.6635
▁attack	-9.66367
▁deserve	-9.66604
tor	-9.66607
▁Disney	-9.66632
▁brilliant	-9.66632
▁revenge	-9.66632
▁spoof	-9.66632
▁Channel	-9.66633
▁conclusion	-9.66633
▁tension	-9.66633
▁earlier	-9.66638
▁impossible	-9.66646
▁Pinhead	-9.66664
▁Lombard	-9.66686
▁portrayal	-9.66711
▁Indian	-9.66769
▁loud	-9.66775
▁cross	-9.66775
▁suit	-9.66897
▁fit	-9.66955
▁victim	-9.66962
▁leaves	-9.67022
light	-9.67022
▁trouble	-9.67051
▁towards	-9.6745
▁values	-9.67568
ating	-9.67729
▁happening	-9.67746
ese	-9.67767
▁Go	-9.67997
▁teenagers	-9.68007
▁features	-9.68087
▁directors	-9.68446
▁mo	-9.68638
Well	-9.68681
▁general	-9.69067
▁suggest	-9.69178
che	-9.69265
▁state	-9.69289
▁Bishop	-9.69409
▁floor	-9.69409
▁plenty	-9.69411
▁otherwise	-9.69454
▁tale	-9.69464
▁priest	-9.69465
▁mis	-9.69469
▁Wood	-9.69483
▁somewhere	-9.6949
▁dramatic	-9.69518
▁flicks	-9.69522
▁send	-9.69552
▁skip	-9.69609
▁interview	-9.69729
making	-9.69835
▁Ma	-9.70044
▁anti	-9.70065
▁died	-9.70367
▁Can	-9.7038
▁pain	-9.70527
6	-9.70549
▁skin	-9.70604
▁worked	-9.71091
▁animals	-9.71259
▁within	-9.71354
Oh	-9.7159
▁mine	-9.71676
▁portray	-9.71708
this	-9.71859
▁loose	-9.71912
▁pace	-9.71983
▁remote	-9.72266
▁shark	-9.72266
▁suicide	-9.72266
▁embarrassing	-9.72267
▁turkey	-9.72267
▁happy	-9.72271
▁saving	-9.72273
▁indeed	-9.72275
▁sell	-9.72315
▁unnecessary	-9.72318
▁George	-9.72324
▁boyfriend	-9.72353
▁par	-9.72353
▁suddenly	-9.72371
▁literally	-9.72382
▁v	-9.72436
▁Please	-9.72461
▁ground	-9.72487
▁sign	-9.72671
▁sat	-9.72735
▁sequences	-9.72807
uit	-9.72999
▁lighting	-9.7334
▁9	-9.73356
ile	-9.73407
▁La	-9.73477
well	-9.73885
▁inside	-9.73921
▁po	-9.74039
work	-9.74391
ence	-9.74408
▁loved	-9.74515
For	-9.74636
▁ended	-9.74643
Don	-9.74729
▁shame	-9.74992
▁moves	-9.7506
ated	-9.75163
▁taste	-9.75184
▁bizarre	-9.75208
▁computer	-9.75208
▁depth	-9.75208
▁FBI	-9.75208
▁promise	-9.75208
▁propaganda	-9.75208
▁window	-9.75214
▁bomb	-9.75235
▁cinematic	-9.75247
▁battle	-9.75261
▁lady	-9.75275
▁stock	-9.75299
▁easy	-9.75314
▁Randy	-9.7534
▁master	-9.75362
▁Steven	-9.75378
▁mistake	-9.75447
ac	-9.75467
▁generally	-9.75572
▁producer	-9.75813
▁10.	-9.75896
▁Pa	-9.75901
▁truth	-9.76127
▁episodes	-9.76131
▁waiting	-9.76133
▁rated	-9.76166
▁describe	-9.76204
▁added	-9.76303
0	-9.76432
▁di	-9.76666
▁plan	-9.77098
▁serve	-9.77217
right	-9.77314
▁cute	-9.77579
com	-9.77649
▁honest	-9.77895
▁discover	-9.78059
▁further	-9.7809
+	-9.78237
▁approach	-9.78238
▁convince	-9.78238
▁eventually	-9.78238
▁franchise	-9.78238
▁historical	-9.78238
▁pretentious	-9.78238
▁presence	-9.78238
▁tree	-9.7824
▁serial	-9.78242
▁collection	-9.78252
▁Yet	-9.78261
▁fashion	-9.78275
▁romantic	-9.78323
▁Christmas	-9.78323
▁successful	-9.78326
▁enjoyable	-9.78341
▁whom	-9.78341
▁Vacation	-9.78347
▁damn	-9.78403
▁William	-9.78417
▁Where	-9.78444
ph	-9.78563
▁created	-9.78612
▁form	-9.7864
▁NO	-9.78721
▁week	-9.78879
▁alive	-9.79001
▁creatures	-9.79289
ah	-9.79611
▁rate	-9.7963
over	-9.79632
nce	-9.79743
end	-9.79961
ber	-9.80534
ud	-9.8055
Overall	-9.80579
▁monsters	-9.80619
▁crash	-9.81305
▁personal	-9.81347
▁favor	-9.81357
▁York	-9.81363
▁answer	-9.81363
▁humour	-9.81363
▁imagination	-9.81363
▁immediately	-9.81363
▁smart	-9.81363
▁language	-9.81363
▁Black	-9.81365
▁masterpiece	-9.81365
▁glad	-9.8137
▁desperate	-9.81373
▁insane	-9.81376
▁Carol	-9.8138
▁appearance	-9.81389
▁disgusting	-9.81444
▁ultimately	-9.81445
▁Chupacabra	-9.81451
rs	-9.81451
▁Two	-9.81476
▁truck	-9.81477
▁search	-9.81526
ual	-9.81533
▁rich	-9.81569
▁meet	-9.81892
ley	-9.8192
ite	-9.81922
▁makeup	-9.81941
▁Tom	-9.81951
▁extra	-9.82012
▁question	-9.82026
▁begins	-9.82042
▁Overall	-9.82157
▁following	-9.82206
▁!	-9.82222
ight	-9.82243
ina	-9.8228
con	-9.82287
▁N	-9.82294
ide	-9.82333
▁older	-9.82342
▁teen	-9.82374
▁involv	-9.82399
▁references	-9.82691
▁sexy	-9.82754
▁push	-9.83376
▁cops	-9.83391
mp	-9.83493
▁ch	-9.83601
some	-9.83803
▁suffer	-9.84006
▁sleep	-9.8401
▁faces	-9.84025
ever	-9.84138
▁convincing	-9.84226
▁brief	-9.84229
▁random	-9.84232
▁victims	-9.84285
▁students	-9.84368
▁basic	-9.84574
▁Smith	-9.84588
▁Oscar	-9.84589
▁advice	-9.84589
▁blue	-9.84589
▁cartoon	-9.84589
▁company	-9.84589
▁exciting	-9.84589
▁unintentional	-9.84589
▁naked	-9.84589
▁popular	-9.84591
▁shallow	-9.84591
▁animation	-9.84591
▁machine	-9.84592
▁baby	-9.84597
▁Kane	-9.84599
▁fear	-9.846
▁studio	-9.84609
▁paper	-9.84619
▁bright	-9.84626
▁mystery	-9.84629
▁1980	-9.84631
▁nobody	-9.84651
▁telling	-9.84669
▁yeah	-9.8468
▁display	-9.84686
que	-9.84698
▁Asian	-9.84712
▁confused	-9.84713
▁former	-9.84729
▁listen	-9.84748
▁plane	-9.84758
▁Director	-9.84765
▁60	-9.84791
▁realistic	-9.84801
▁situations	-9.85207
▁viewing	-9.85291
cy	-9.85354
▁lived	-9.85384
▁vampire	-9.85455
▁mom	-9.8549
uck	-9.85498
▁shocking	-9.85662
ious	-9.85728
▁stereotypes	-9.85728
▁ill	-9.8585
▁Ho	-9.8593
ward	-9.8597
▁o	-9.85989
▁Dam	-9.86076
▁casting	-9.86088
rate	-9.86146
she	-9.86184
ky	-9.86437
7	-9.86568
▁remains	-9.86589
▁lots	-9.86712
▁Mo	-9.86777
▁40	-9.86855
▁opera	-9.86957
action	-9.87146
▁Christ	-9.87153
good	-9.87155
Now	-9.87195
guy	-9.8733
▁uses	-9.87397
mon	-9.87491
▁exist	-9.87564
coming	-9.87692
▁Steve	-9.87749
▁America	-9.87791
ang	-9.87841
▁lose	-9.8786
ING	-9.87911
▁public	-9.87922
▁nonsense	-9.87922
▁Carrey	-9.87922
▁rare	-9.87928
▁assume	-9.87931
▁impression	-9.87938
▁record	-9.87956
▁Kim	-9.87963
▁carry	-9.87985
▁fantasy	-9.88016
▁plus	-9.88016
▁Paul	-9.88034
▁Russian	-9.88043
uch	-9.88082
▁Other	-9.88127
▁Zombie	-9.88151
▁famous	-9.88175
▁Komodo	-9.88177
▁grat	-9.88273
▁recently	-9.88372
▁Z	-9.88403
▁soap	-9.88425
▁clichéd	-9.88433
▁fr	-9.88519
▁drive	-9.88612
▁dream	-9.88806
ble	-9.88808
▁location	-9.88829
▁touch	-9.89012
▁leader	-9.89033
▁hated	-9.89204
▁renting	-9.89315
▁red	-9.89416
ned	-9.90011
een	-9.90094
▁King	-9.90124
▁offer	-9.90387
what	-9.90404
ong	-9.90517
`	-9.90582
▁hang	-9.90812
▁miss	-9.90851
lic	-9.91013
▁base	-9.91147
ca	-9.91209
▁Bill	-9.91271
▁leav	-9.91327
▁Earth	-9.9137
▁Lewis	-9.9137
▁century	-9.9137
▁genuine	-9.9137
▁hundred	-9.9137
▁mediocre	-9.9137
▁sheriff	-9.9137
▁visit	-9.9137
▁drunk	-9.9137
▁Martin	-9.91371
▁regard	-9.91378
▁rubbish	-9.91379
▁clothes	-9.91385
▁fift	-9.91385
▁science	-9.9139
▁heroine	-9.91411
▁tired	-9.91435
▁social	-9.91437
▁OF	-9.9144
▁manner	-9.91484
▁soft	-9.91514
▁Cave	-9.91552
art	-9.91574
▁Avoid	-9.91606
▁Good	-9.91647
▁pi	-9.91698
▁mad	-9.91722
our	-9.91769
▁Mary	-9.91783
▁suck	-9.91845
▁missed	-9.91923
▁Ha	-9.91963
▁hat	-9.91983
▁longer	-9.92278
▁exception	-9.92378
▁scientist	-9.92392
▁50	-9.92467
▁8	-9.92521
▁spot	-9.92718
cal	-9.92751
▁Mc	-9.9277
▁Po	-9.93194
▁wondering	-9.93283
ave	-9.93486
▁ideas	-9.93662
par	-9.93781
▁burn	-9.93904
use	-9.9403
**	-9.94168
film	-9.94168
director	-9.94173
▁prison	-9.94213
tte	-9.94273
▁leads	-9.94518
rew	-9.94553
room	-9.94581
▁insult	-9.94608
▁pop	-9.94641
▁shop	-9.94677
▁force	-9.94744
▁consist	-9.94777
▁porn	-9.94862
▁Cobb	-9.94942
▁fault	-9.94942
▁grace	-9.94942
▁innocent	-9.94942
▁Moore	-9.94942
▁join	-9.94942
▁account	-9.94942
▁combin	-9.94942
▁suspect	-9.94942
▁Brown	-9.94943
▁ashamed	-9.94943
▁nature	-9.94945
▁mood	-9.94947
▁tough	-9.94949
▁match	-9.94953
▁culture	-9.94954
▁responsible	-9.94963
▁cash	-9.94963
▁photography	-9.95027
▁Ride	-9.95039
▁Jack	-9.95055
▁era	-9.95064
▁****	-9.951
▁limited	-9.95142
▁murders	-9.95202
▁band	-9.95205
▁fat	-9.95244
▁starring	-9.95256
▁yes	-9.95263
back	-9.95273
▁Reba	-9.9528
▁below	-9.95329
▁honestly	-9.95349
ain	-9.95404
ak	-9.95485
lan	-9.95544
▁Sant	-9.95563
▁scare	-9.95877
▁books	-9.9592
you	-9.95952
?!	-9.96044
▁issue	-9.96409
▁Sam	-9.96453
▁involve	-9.96593
long	-9.96755
▁lacking	-9.97117
row	-9.97135
fe	-9.97165
▁paint	-9.97192
▁ha	-9.97218
pi	-9.97684
▁laughed	-9.97865
year	-9.97872
▁struggle	-9.97888
with	-9.97888
▁develop	-9.98147
▁arts	-9.9817
bad	-9.98195
gen	-9.98205
▁prefer	-9.98261
▁appreciate	-9.98354
On	-9.98379
▁torture	-9.98417
▁step	-9.98468
▁million	-9.98638
▁spirit	-9.9864
pite	-9.98645
▁amazing	-9.98645
▁college	-9.98645
▁knowledge	-9.98645
▁society	-9.98645
▁accurate	-9.98646
▁martial	-9.98646
▁twenty	-9.98646
▁affair	-9.98646
▁content	-9.98646
▁research	-9.98646
▁Little	-9.98647
▁freak	-9.98651
▁Julie	-9.98654
▁share	-9.98656
▁information	-9.98657
▁idiotic	-9.98662
▁cold	-9.9867
▁Hopper	-9.98721
▁Otherwise	-9.98724
▁familiar	-9.9875
ize	-9.98839
▁Master	-9.98846
▁Film	-9.98854
tra	-9.98907
▁drug	-9.98992
how	-9.99136
???	-9.99159
▁changes	-9.99186
▁jump	-9.99279
▁younger	-9.99457
▁comical	-9.99505
▁figured	-9.99515
▁protagonist	-9.99857
▁street	-9.99887
low	-9.99933
▁animal	-9.99973
ob	-10.0007
ions	-10.0012
dom	-10.0025
mit	-10.0046
▁runs	-10.0071
▁efforts	-10.0084
▁highly	-10.0085
▁costs	-10.0095
▁Too	-10.0104
▁cant	-10.0115
▁bear	-10.0125
▁Sh	-10.0128
▁questions	-10.0164
screen	-10.0165
▁wasting	-10.0169
▁rescue	-10.0177
▁Er	-10.0185
▁appeal	-10.0191
▁vs	-10.0192
ped	-10.0235
▁Sure	-10.024
▁chick	-10.0247
▁crazy	-10.0249
▁hospital	-10.0249
▁industry	-10.0249
▁teeth	-10.0249
▁wrestling	-10.0249
▁horse	-10.0249
British	-10.0249
▁explanation	-10.0249
▁graphic	-10.0249
▁cheese	-10.0249
▁failure	-10.025
▁device	-10.025
▁intelligent	-10.025
▁unoriginal	-10.025
▁unfunny	-10.025
▁curious	-10.0252
▁religious	-10.0254
%	-10.0256
▁sitting	-10.0256
▁hire	-10.0257
▁Love	-10.0257
▁mysterious	-10.0257
▁possessed	-10.0264
▁mid	-10.0264
▁?	-10.0265
▁professional	-10.0266
▁worthless	-10.0267
▁absurd	-10.0267
▁Hellraiser	-10.0272
▁ability	-10.0276
▁grade	-10.0282
▁brutal	-10.0284
▁greatest	-10.0284
▁l	-10.0285
▁sucked	-10.0302
▁watchable	-10.0315
▁Bell	-10.0335
▁angles	-10.0366
▁ball	-10.0373
▁puppets	-10.0386
▁sl	-10.0388
lin	-10.0388
▁talented	-10.0394
▁details	-10.0435
▁cat	-10.0438
▁camp	-10.0443
putting	-10.0459
▁issues	-10.0519
▁vampires	-10.055
▁theme	-10.0555
▁perform	-10.0562
One	-10.0603
gi	-10.0618
▁draw	-10.0632
atch	-10.0632
▁aim	-10.0638
▁connect	-10.0644
No	-10.0644
ash	-10.0647
▁amateur	-10.0648
▁author	-10.0649
▁office	-10.0649
▁dancing	-10.0649
▁promising	-10.0649
▁terribly	-10.0649
▁Belushi	-10.0649
▁Jeff	-10.0649
▁miserably	-10.0649
▁doctor	-10.0649
▁heavy	-10.0649
▁tedious	-10.0649
▁angry	-10.0649
▁knock	-10.0649
▁swear	-10.0649
▁Bates	-10.0649
▁Hogan	-10.065
▁everybody	-10.0651
▁Dante	-10.0651
▁Vince	-10.0652
▁statement	-10.0652
▁notice	-10.0656
▁fish	-10.0656
▁Halloween	-10.0657
▁trailer	-10.0659
▁corny	-10.066
▁Thank	-10.0661
▁Lu	-10.0671
▁Peter	-10.0673
▁motion	-10.0674
▁ma	-10.0675
▁fu	-10.0689
▁Kath	-10.0704
▁forever	-10.0714
ew	-10.0714
!!!!	-10.0716
▁th	-10.0737
▁weapons	-10.0739
▁`	-10.0742
▁sn	-10.0747
▁remain	-10.0763
▁sadly	-10.0764
▁speaking	-10.077
TV	-10.0777
▁mouth	-10.0779
ock	-10.0784
▁soldiers	-10.0792
rated	-10.0792
iss	-10.0797
▁alien	-10.081
▁cost	-10.0824
▁contains	-10.0824
▁ready	-10.0828
▁onto	-10.0838
▁Anne	-10.0841
▁aspects	-10.0845
▁Car	-10.0853
▁dad	-10.0873
▁boys	-10.0875
ible	-10.0879
▁Dor	-10.0879
▁Ro	-10.0885
▁likely	-10.0896
ise	-10.0898
▁bi	-10.092
ook	-10.0952
▁reach	-10.0971
wa	-10.098
▁logic	-10.0984
ster	-10.1019
▁inter	-10.1029
▁correct	-10.103
▁Des	-10.1035
▁stage	-10.104
fully	-10.1041
▁survive	-10.1042
▁More	-10.1045
▁wide	-10.105
▁success	-10.1051
▁dance	-10.1056
▁clue	-10.1063
é	-10.1066
▁bottom	-10.1066
▁empty	-10.1066
▁government	-10.1066
▁horribly	-10.1066
▁irritating	-10.1066
▁ludicrous	-10.1066
▁qualities	-10.1066
▁separate	-10.1066
▁gonna	-10.1066
▁asleep	-10.1066
▁Larry	-10.1066
▁grave	-10.1066
▁narrative	-10.1067
othy	-10.1067
▁Scott	-10.1068
▁earth	-10.1068
▁Cujo	-10.1071
▁cutting	-10.1074
▁Seriously	-10.1074
▁married	-10.1075
turned	-10.1075
▁Everything	-10.1075
▁blonde	-10.1076
▁adventure	-10.1077
▁fiction	-10.1077
▁station	-10.1078
▁teacher	-10.1079
▁Because	-10.1081
▁standards	-10.1083
▁Mark	-10.1089
▁Jr	-10.109
▁gory	-10.109
nnis	-10.1092
▁Look	-10.1093
▁bra	-10.1095
▁law	-10.1103
ign	-10.1104
▁Texas	-10.1104
ach	-10.1105
▁singing	-10.1106
▁prove	-10.1108
▁meaning	-10.1109
▁heck	-10.1114
▁Anyway	-10.1119
▁South	-10.112
▁forth	-10.1126
▁allowed	-10.1143
▁mental	-10.1143
▁("	-10.1156
▁bu	-10.1161
star	-10.1175
mar	-10.1187
▁asked	-10.1195
▁100	-10.1216
▁drink	-10.1237
▁Cr	-10.1239
rol	-10.1243
don	-10.1261
▁lies	-10.1262
ze	-10.1285
▁pieces	-10.1288
▁sc	-10.1295
▁Sa	-10.1298
Not	-10.131
▁worthy	-10.1312
set	-10.132
ice	-10.1333
ning	-10.1337
Be	-10.1353
▁guns	-10.1355
▁cla	-10.1362
ern	-10.1379
▁Di	-10.1404
just	-10.1425
da	-10.1432
▁ba	-10.1437
▁ran	-10.1442
▁reveal	-10.1453
▁Les	-10.146
▁apparent	-10.1467
▁member	-10.1471
00	-10.1477
ound	-10.1484
part	-10.1486
▁range	-10.1489
▁Charl	-10.1491
▁whi	-10.1496
▁awkward	-10.1501
▁energy	-10.1501
▁experiment	-10.1501
▁strength	-10.1501
▁Park	-10.1501
▁lousy	-10.1501
▁desert	-10.1501
▁frankly	-10.1501
▁double	-10.1501
▁facial	-10.1501
▁moral	-10.1501
▁Cobra	-10.1501
▁ANY	-10.1501
▁worry	-10.1501
▁six	-10.1502
▁Norman	-10.1502
▁blah	-10.1502
▁raise	-10.1502
▁disturbing	-10.1505
▁bland	-10.1506
▁Anthon	-10.1506
▁forgettable	-10.1506
bi	-10.1506
▁artistic	-10.1507
▁sent	-10.1507
▁stinker	-10.1508
▁eaten	-10.1509
ba	-10.1509
▁bodies	-10.1509
▁test	-10.151
▁nasty	-10.1513
▁Big	-10.1517
▁mindless	-10.1517
▁attractive	-10.1518
▁People	-10.152
too	-10.1526
▁Okay	-10.1527
▁City	-10.153
▁forgotten	-10.1537
▁rise	-10.1546
ED	-10.1558
▁scared	-10.1562
▁follows	-10.1578
▁18	-10.1606
▁emotion	-10.1607
▁flaws	-10.161
▁sea	-10.1616
▁finished	-10.1618
▁stretch	-10.1622
Do	-10.1624
ov	-10.1628
stin	-10.1629
▁saved	-10.1633
▁slowly	-10.1641
▁lo	-10.1641
▁standing	-10.1654
▁en	-10.1663
▁Ja	-10.1668
ron	-10.1676
cing	-10.169
▁western	-10.1693
▁cliche	-10.1697
▁min	-10.1711
▁Chan	-10.1726
▁terms	-10.1727
▁filmmaker	-10.1731
vy	-10.1735
ier	-10.1749
▁tie	-10.1752
??	-10.1766
▁mini	-10.1802
ities	-10.1802
▁da	-10.1804
▁tape	-10.1806
▁Ne	-10.1822
held	-10.1829
cut	-10.1838
▁helped	-10.184
We	-10.1861
▁capabl	-10.1864
ff	-10.1867
Why	-10.1878
▁ways	-10.1881
ax	-10.1897
EN	-10.19
▁charm	-10.19
▁accept	-10.1903
▁drag	-10.1905
▁r	-10.1924
▁ta	-10.1924
ja	-10.1924
ving	-10.1926
▁junk	-10.1929
har	-10.1936
▁travel	-10.1952
▁occur	-10.1954
▁psycho	-10.1955
▁Sheriff	-10.1955
▁atrocious	-10.1955
▁chemistry	-10.1955
▁comparison	-10.1955
▁disjointed	-10.1955
▁driving	-10.1955
▁jungle	-10.1955
▁length	-10.1955
▁physical	-10.1955
▁unconvincing	-10.1955
▁blind	-10.1955
Which	-10.1955
▁green	-10.1955
▁funnies	-10.1955
▁1960	-10.1955
▁available	-10.1956
▁round	-10.1956
▁memorable	-10.1956
▁chair	-10.1956
▁dangerous	-10.1956
▁likable	-10.1956
▁twice	-10.1956
▁inept	-10.1957
▁expectations	-10.1957
▁gold	-10.1957
▁thus	-10.1957
▁Sorry	-10.1958
▁dozen	-10.1959
▁highlight	-10.196
▁minor	-10.1962
▁sight	-10.1964
▁somebody	-10.1965
▁guard	-10.1969
▁None	-10.197
▁X	-10.1972
▁Dark	-10.1973
▁biker	-10.1975
▁feet	-10.1977
▁leg	-10.1978
▁12	-10.1983
▁rental	-10.1983
▁began	-10.1985
▁Any	-10.1986
▁la	-10.2001
▁endless	-10.2001
used	-10.2008
▁Bone	-10.2031
▁tend	-10.2033
▁emotional	-10.2048
ass	-10.2056
▁skills	-10.2058
▁Give	-10.2074
ki	-10.2078
ika	-10.208
▁learned	-10.2088
▁lower	-10.2092
▁grow	-10.2092
bu	-10.2105
▁scream	-10.2114
▁visual	-10.2133
ommy	-10.2142
ik	-10.2144
▁Com	-10.2164
▁Guy	-10.2168
▁element	-10.218
gs	-10.2181
▁spoiler	-10.2203
▁earn	-10.2211
filled	-10.2216
▁places	-10.2219
▁smoke	-10.224
▁lacks	-10.2247
▁Gi	-10.2249
▁soul	-10.2266
▁dies	-10.2271
▁introduce	-10.228
▁overly	-10.2319
▁roll	-10.2329
ny	-10.2341
life	-10.2356
Some	-10.2357
my	-10.2358
▁drop	-10.2361
▁tone	-10.2363
▁spoil	-10.2373
▁Vi	-10.2379
▁finding	-10.2379
▁Th	-10.2379
▁hasn	-10.2393
▁quick	-10.2397
▁absolute	-10.2401
ST	-10.2402
▁unlike	-10.2406
cream	-10.2423
qui	-10.2429
▁Norris	-10.2431
▁Perkins	-10.2431
▁Thomas	-10.2431
▁afraid	-10.2431
▁equal	-10.2431
▁silent	-10.2431
▁system	-10.2431
▁unique	-10.2431
▁thousand	-10.2431
▁Never	-10.2432
▁amaze	-10.2432
▁climax	-10.2432
▁latter	-10.2432
▁Prey	-10.2432
▁satire	-10.2432
▁crude	-10.2432
▁steam	-10.2432
▁Jason	-10.2432
▁continuity	-10.2433
▁epic	-10.2433
▁Squad	-10.2433
▁devil	-10.2434
▁boredom	-10.2434
▁continue	-10.2435
▁sake	-10.2435
▁centr	-10.2436
▁hotel	-10.2436
▁Jesus	-10.2437
▁creative	-10.2437
▁connection	-10.2438
▁Out	-10.2438
▁Frank	-10.2438
▁cry	-10.2439
▁abuse	-10.2441
▁current	-10.2441
▁Hannibal	-10.2441
▁army	-10.2442
▁ne	-10.2442
▁speed	-10.2442
▁unknown	-10.2443
▁Alien	-10.2445
▁frame	-10.2449
▁45	-10.2449
▁le	-10.2449
▁useless	-10.2451
▁Bruce	-10.2453
hood	-10.2453
▁consistent	-10.2454
▁haunted	-10.2454
▁US	-10.2455
▁Angel	-10.2457
▁lay	-10.2461
▁surprisingly	-10.2461
air	-10.2472
▁Ca	-10.2475
▁belong	-10.2486
▁Had	-10.2501
▁size	-10.2501
▁Boy	-10.2505
▁na	-10.2528
▁Bu	-10.2532
▁trappe	-10.2543
▁Ru	-10.2557
▁killers	-10.2573
▁gu	-10.2581
▁bothered	-10.2606
▁dealing	-10.2616
oh	-10.262
▁claim	-10.2623
▁players	-10.2625
▁twists	-10.263
▁term	-10.2631
iv	-10.2633
▁Psycho	-10.2638
run	-10.2642
her	-10.2677
▁reviewers	-10.2678
▁agent	-10.2683
▁Le	-10.2684
pic	-10.2685
▁teenager	-10.2688
get	-10.2688
***	-10.2698
gu	-10.2706
rd	-10.2708
AN	-10.2721
▁bus	-10.2724
ano	-10.2738
▁seconds	-10.2744
▁drugs	-10.276
till	-10.2768
can	-10.2794
unk	-10.2802
▁blow	-10.2811
ka	-10.2822
▁repeat	-10.2822
▁sp	-10.2825
▁train	-10.2827
ken	-10.2831
▁Bar	-10.2834
▁Has	-10.2836
▁magic	-10.2841
However	-10.2854
▁understanding	-10.2855
▁clean	-10.2872
gun	-10.2881
▁fool	-10.2881
▁offers	-10.2882
RE	-10.2883
▁design	-10.2883
▁ruin	-10.2885
ition	-10.2894
▁flash	-10.2896
▁extreme	-10.2902
▁u	-10.2905
du	-10.2907
▁cares	-10.2914
▁trip	-10.2917
▁adapt	-10.2927
▁produce	-10.2928
movies	-10.293
▁disappear	-10.293
▁Arnold	-10.2931
▁Captain	-10.2931
▁Quaid	-10.2931
▁Tarzan	-10.2931
▁Witch	-10.2931
▁borrow	-10.2931
▁marriage	-10.2931
▁numerous	-10.2931
▁peace	-10.2931
▁revolve	-10.2931
▁romance	-10.2931
▁stomach	-10.2931
▁choose	-10.2931
▁fantastic	-10.2931
▁fresh	-10.2931
▁flesh	-10.2931
▁belief	-10.2931
▁Eater	-10.2931
▁Great	-10.2931
▁superior	-10.2931
▁REALLY	-10.2931
▁difference	-10.2932
▁opposite	-10.2932
▁ugly	-10.2932
▁recover	-10.2932
▁legend	-10.2932
▁cobra	-10.2932
▁worthwhile	-10.2932
▁forgot	-10.2932
▁relief	-10.2933
▁naive	-10.2933
▁witch	-10.2933
▁seemingly	-10.2933
▁pair	-10.2935
▁gags	-10.2935
▁apartment	-10.2935
▁ALL	-10.2936
▁Stephen	-10.2938
▁criminal	-10.2938
▁Apparently	-10.2942
▁compelling	-10.2942
▁Chin	-10.2942
▁cringe	-10.2943
▁cable	-10.2946
▁Rick	-10.2948
▁edited	-10.2949
▁Wow	-10.2951
▁Yeah	-10.2954
▁Sadly	-10.2954
now	-10.2956
▁mildly	-10.2959
▁hide	-10.2961
▁scenery	-10.2961
▁constantly	-10.2964
▁Night	-10.2967
▁stupidity	-10.2968
▁city	-10.2969
▁award	-10.2975
▁provide	-10.2975
existent	-10.2989
▁See	-10.299
▁Americans	-10.2992
▁seek	-10.2993
▁wind	-10.2999
▁developed	-10.3015
▁meeting	-10.3024
▁realized	-10.3026
▁delivered	-10.3037
▁audiences	-10.3058
▁explained	-10.3068
▁El	-10.307
▁return	-10.3093
real	-10.3095
▁falling	-10.31
▁Ms	-10.3106
.....	-10.3108
▁wit	-10.3114
od	-10.3118
pher	-10.3126
ell	-10.3145
kin	-10.3146
▁War	-10.3153
IN	-10.3182
▁sal	-10.3192
ven	-10.3193
▁agents	-10.3193
▁Un	-10.3203
▁expression	-10.3205
▁detail	-10.3208
▁officer	-10.321
▁Eric	-10.3237
though	-10.3239
▁reviewer	-10.3245
bout	-10.325
▁lights	-10.3268
▁hole	-10.3279
▁aspect	-10.3302
▁locations	-10.3316
otte	-10.333
▁gl	-10.3336
▁rape	-10.3339
▁teens	-10.3343
ug	-10.3373
dimensional	-10.3376
Z	-10.3377
plot	-10.3379
First	-10.338
After	-10.338
▁Ron	-10.3381
John	-10.3389
▁hu	-10.3393
▁talents	-10.3419
▁constant	-10.3423
cho	-10.3434
▁date	-10.3437
thing	-10.3437
▁effective	-10.3446
▁teenage	-10.345
▁capture	-10.3453
▁object	-10.3456
▁attract	-10.3456
▁grand	-10.3457
▁showed	-10.3457
▁yell	-10.3457
▁Bronson	-10.3458
▁Foster	-10.3458
▁Montgomery	-10.3458
▁Nicole	-10.3458
▁Rhys	-10.3458
▁VHS	-10.3458
▁abandon	-10.3458
▁category	-10.3458
▁decision	-10.3458
▁komodo	-10.3458
▁obsess	-10.3458
▁recognize	-10.3458
▁Derek	-10.3458
▁Spanish	-10.3458
▁sweet	-10.3458
▁heads	-10.3458
▁jail	-10.3458
▁stereotypical	-10.3458
▁source	-10.3458
▁initial	-10.3458
▁pacing	-10.3458
▁preview	-10.3458
▁merit	-10.3459
▁dying	-10.3459
▁exploitation	-10.346
▁commentary	-10.346
▁handsome	-10.3461
▁Gun	-10.3462
▁Emi	-10.3463
▁summer	-10.3463
▁sword	-10.3464
▁anybody	-10.3464
▁Tarantino	-10.3464
▁varie	-10.3465
▁anywhere	-10.3467
▁African	-10.3467
▁13	-10.3468
▁porno	-10.347
▁rank	-10.347
▁pile	-10.3471
▁pity	-10.3472
▁switch	-10.3473
▁trust	-10.3473
▁buddy	-10.3473
▁Carl	-10.3473
▁PG	-10.3475
▁independent	-10.3478
▁High	-10.3481
▁Up	-10.3482
▁print	-10.3486
▁field	-10.3486
▁warned	-10.3488
▁drawn	-10.3488
▁Oldboy	-10.349
▁Really	-10.349
▁AND	-10.3491
▁Was	-10.3492
▁gri	-10.3495
idden	-10.3495
▁noticed	-10.3497
▁captured	-10.3498
▁DO	-10.3505
▁included	-10.3513
▁Hall	-10.3515
▁Second	-10.3516
▁revealed	-10.3517
▁screaming	-10.3523
▁Willi	-10.3525
late	-10.3543
▁attacked	-10.3553
▁**	-10.358
▁dollars	-10.3591
▁:	-10.36
▁presented	-10.3601
▁com	-10.3602
▁Hard	-10.3618
▁se	-10.3618
war	-10.3626
▁IT	-10.3628
De	-10.3656
ants	-10.3656
▁bullets	-10.3677
▁bits	-10.368
▁Li	-10.3681
!).	-10.3696
act	-10.3703
hi	-10.3706
▁bat	-10.3708
▁ants	-10.3718
▁imp	-10.372
▁returns	-10.3722
▁bin	-10.3726
▁Ali	-10.373
▁Ra	-10.3741
ture	-10.3746
lly	-10.3748
ler	-10.375
▁dam	-10.375
▁mask	-10.3752
He	-10.3764
▁factor	-10.3784
cent	-10.3789
they	-10.3791
▁brothers	-10.3794
▁Ber	-10.3798
▁pe	-10.3799
mic	-10.3805
▁Ice	-10.3805
▁filming	-10.3825
fest	-10.3825
▁facts	-10.3834
▁spit	-10.3854
▁sum	-10.3857
▁Mel	-10.3865
cr	-10.3876
▁ratings	-10.3881
inal	-10.3897
OR	-10.3918
Davies	-10.3932
from	-10.3936
American	-10.3937
▁product	-10.394
With	-10.3941
▁Ann	-10.3944
Hell	-10.3945
▁crack	-10.3955
▁ham	-10.3962
▁Pe	-10.3964
▁lie	-10.3964
▁attacks	-10.3969
▁Du	-10.3975
▁surprising	-10.3979
▁exact	-10.3988
▁relate	-10.3988
▁resemble	-10.399
unch	-10.3991
amp	-10.4
▁shut	-10.4005
▁depict	-10.4007
▁ignore	-10.4009
▁express	-10.401
▁ghosts	-10.401
▁exploit	-10.4011
▁subtle	-10.4012
▁safe	-10.4012
▁dro	-10.4012
▁trans	-10.4012
▁foot	-10.4012
	-10.4013
▁Robicheaux	-10.4013
▁Stewart	-10.4013
▁blatant	-10.4013
▁contrived	-10.4013
▁disguise	-10.4013
▁negative	-10.4013
▁regular	-10.4013
▁vague	-10.4013
▁THAT	-10.4013
▁Armstrong	-10.4013
▁lesbian	-10.4013
▁opportunity	-10.4013
▁contest	-10.4013
▁risk	-10.4013
▁comedies	-10.4013
▁native	-10.4013
▁program	-10.4013
▁Ninja	-10.4013
▁solid	-10.4014
▁bathroom	-10.4014
▁department	-10.4014
▁root	-10.4014
▁kidding	-10.4014
▁gangster	-10.4015
▁wake	-10.4015
▁witty	-10.4016
▁executed	-10.4016
▁string	-10.4017
▁Rock	-10.4017
▁artist	-10.4017
▁Jerry	-10.4017
▁boss	-10.4018
▁wrap	-10.4019
▁Nation	-10.4019
▁boat	-10.4019
▁14	-10.402
▁Fred	-10.4021
▁offensive	-10.4021
▁Howard	-10.4021
▁reaction	-10.4023
▁Gus	-10.4023
▁essentially	-10.4023
▁drivel	-10.4025
▁Gene	-10.4025
▁broken	-10.4026
▁Green	-10.4026
▁Lord	-10.4033
▁Vampire	-10.4034
▁club	-10.4034
▁Dog	-10.4035
▁Prett	-10.4036
▁divers	-10.4037
▁occasionally	-10.4038
ced	-10.404
▁Wicked	-10.4042
umb	-10.4047
pol	-10.4048
▁themes	-10.4048
▁justice	-10.405
▁demons	-10.4058
▁met	-10.4058
▁Allen	-10.4062
▁k	-10.4066
▁Rogers	-10.408
▁Bob	-10.4093
▁virtual	-10.4096
gging	-10.41
▁perfectly	-10.41
▁discovered	-10.4103
▁aware	-10.4107
▁previously	-10.412
▁seat	-10.4124
▁arms	-10.4124
▁cuts	-10.4131
▁clip	-10.4133
▁Stan	-10.4144
▁pet	-10.4154
▁stinks	-10.4155
▁Br	-10.416
An	-10.4168
pes	-10.4183
▁Ga	-10.4185
▁stands	-10.4193
▁dislike	-10.4201
▁lu	-10.4218
there	-10.4223
fo	-10.4223
▁images	-10.423
▁Did	-10.4237
▁fail	-10.4243
▁Dad	-10.4244
▁Matt	-10.4252
▁costumes	-10.426
▁Days	-10.426
▁Mad	-10.4272
▁addition	-10.4274
▁novels	-10.4279
▁expressions	-10.4291
▁contain	-10.4297
▁levels	-10.431
▁model	-10.4317
▁plant	-10.4321
▁report	-10.4324
▁terror	-10.4329
ime	-10.4329
▁encounter	-10.4342
▁monkey	-10.4344
▁commercial	-10.4344
▁adult	-10.4345
▁costume	-10.4347
▁Gr	-10.4358
pping	-10.4363
▁Day	-10.4367
aged	-10.4376
Jo	-10.4379
▁Dan	-10.4403
▁scientists	-10.4428
▁cav	-10.4444
cient	-10.4453
su	-10.4474
ups	-10.4514
after	-10.4524
style	-10.4525
story	-10.4542
mmy	-10.4545
shot	-10.4554
▁technical	-10.4565
▁youth	-10.4566
▁sun	-10.4574
▁sho	-10.4582
MA	-10.4593
magine	-10.4594
▁Ribisi	-10.4601
▁Vaughn	-10.4601
▁abysmal	-10.4601
▁appalling	-10.4601
▁benefit	-10.4601
▁depressing	-10.4601
▁disbelief	-10.4601
▁festival	-10.4601
▁horrid	-10.4601
▁liberal	-10.4601
▁practical	-10.4601
▁process	-10.4601
▁radio	-10.4601
▁repetitive	-10.4601
▁substance	-10.4601
▁target	-10.4601
▁vehicle	-10.4601
▁excited	-10.4601
▁false	-10.4601
▁Walker	-10.4601
▁frightening	-10.4601
▁pilot	-10.4601
▁Cavern	-10.4601
▁zero	-10.4602
▁supernatural	-10.4602
▁instance	-10.4602
▁lawyer	-10.4602
▁mummy	-10.4602
▁Jean	-10.4602
▁recall	-10.4602
▁creating	-10.4602
▁represent	-10.4603
▁Blair	-10.4603
▁Wayne	-10.4603
▁Things	-10.4603
▁pool	-10.4604
▁tight	-10.4604
▁stopped	-10.4604
▁punch	-10.4604
▁editor	-10.4604
▁gem	-10.4604
▁sky	-10.4605
▁opens	-10.4606
▁stunning	-10.4607
▁seven	-10.4608
▁Danes	-10.4608
▁genius	-10.4609
▁retarded	-10.4609
▁humorous	-10.461
▁impressive	-10.461
▁Stop	-10.4612
▁host	-10.4612
▁Poor	-10.4613
▁parody	-10.4614
▁wreck	-10.4614
▁underground	-10.4615
▁Much	-10.4616
▁Angela	-10.4617
▁dirty	-10.4618
▁replaced	-10.4619
▁Dae	-10.4621
sen	-10.4622
▁fo	-10.4622
▁driver	-10.4622
▁stumble	-10.4623
▁Basically	-10.4623
▁Australian	-10.4623
▁ring	-10.463
▁Though	-10.4633
ney	-10.4638
▁warning	-10.464
▁proved	-10.4642
▁concerned	-10.4645
▁Iron	-10.465
▁park	-10.4655
▁ruined	-10.4659
▁lock	-10.466
How	-10.4665
▁Come	-10.4667
▁key	-10.4671
▁wise	-10.4675
▁nut	-10.4679
▁Jod	-10.468
▁personally	-10.4681
▁Mod	-10.4684
▁months	-10.4688
▁painfully	-10.4695
▁du	-10.4711
▁destroyed	-10.4712
▁cameo	-10.4716
▁prisoner	-10.4724
▁im	-10.4727
most	-10.4743
▁Ju	-10.4747
vol	-10.4764
eating	-10.4773
▁IS	-10.4776
ometimes	-10.4779
very	-10.4785
At	-10.4798
LE	-10.4804
rid	-10.4825
eep	-10.4829
ga	-10.4829
▁flashbacks	-10.4832
▁idiots	-10.4848
▁provid	-10.4854
ory	-10.4864
ire	-10.4875
▁Jo	-10.4877
▁ain	-10.4879
▁Ty	-10.4893
▁sing	-10.4897
face	-10.4922
▁villains	-10.4929
ope	-10.493
▁hopes	-10.4933
ange	-10.4937
▁Ben	-10.4943
▁prepar	-10.4959
▁Liv	-10.4963
▁games	-10.4966
▁track	-10.4967
▁idiot	-10.4968
▁pa	-10.497
▁movement	-10.497
▁walks	-10.4972
▁bullet	-10.4972
▁reference	-10.4974
▁dar	-10.4979
dict	-10.4985
uring	-10.5024
chi	-10.5032
▁forces	-10.5045
ties	-10.5049
rap	-10.505
▁Hu	-10.506
▁sequels	-10.508
▁sheer	-10.509
▁caus	-10.5091
▁forest	-10.5092
ana	-10.5092
▁cheat	-10.5107
cher	-10.5115
▁Will	-10.5144
produc	-10.5146
Anyway	-10.5148
special	-10.5148
Unfortunately	-10.5149
Maybe	-10.5149
That	-10.5149
called	-10.5151
Even	-10.5152
via	-10.5161
▁market	-10.517
make	-10.5176
▁Fox	-10.5179
▁mild	-10.5192
vers	-10.5197
▁formula	-10.5224
’	-10.5226
▁1970	-10.5226
▁Bernard	-10.5226
▁Hodder	-10.5226
▁MOVIE	-10.5226
▁THIS	-10.5226
▁creator	-10.5226
▁excitement	-10.5226
▁intrigue	-10.5226
▁plague	-10.5226
▁portion	-10.5226
▁section	-10.5226
▁underwater	-10.5226
▁Especially	-10.5226
▁World	-10.5226
▁miserable	-10.5226
▁funnier	-10.5226
▁harsh	-10.5226
▁slapstick	-10.5226
▁Since	-10.5226
▁awesome	-10.5226
▁regret	-10.5226
▁accomplish	-10.5227
▁beauty	-10.5227
▁goofy	-10.5227
▁motivation	-10.5227
▁court	-10.5227
▁captain	-10.5227
▁hurt	-10.5227
▁intelligence	-10.5227
▁cruise	-10.5227
▁angel	-10.5227
▁food	-10.5227
▁summary	-10.5227
▁Harry	-10.5227
▁alright	-10.5227
▁wannabe	-10.5227
▁Life	-10.5227
▁Blade	-10.5227
▁sentence	-10.5227
▁stiff	-10.5227
Scary	-10.5227
▁ladies	-10.5228
▁Mummy	-10.5228
▁race	-10.5228
▁4/10	-10.5228
▁Walter	-10.5228
▁1/10	-10.5228
▁edge	-10.5228
▁unrealistic	-10.5228
▁slightest	-10.5228
▁scale	-10.5229
▁temp	-10.5229
▁Dudikoff	-10.5229
▁Story	-10.523
▁flow	-10.5231
▁BAD	-10.5231
▁conflict	-10.5231
▁dragon	-10.5232
▁page	-10.5233
▁Island	-10.5234
▁Sadie	-10.5234
read	-10.5235
▁Communist	-10.5235
▁uninspired	-10.5235
▁animated	-10.5236
▁stolen	-10.5236
▁passion	-10.5236
▁debut	-10.5238
▁passable	-10.5238
▁cheer	-10.524
▁table	-10.5242
▁Space	-10.5243
▁chas	-10.5243
▁shape	-10.5246
gotten	-10.5247
▁grown	-10.5251
▁fascinating	-10.5254
▁carrie	-10.5255
▁heroes	-10.5256
▁impressed	-10.5256
▁semi	-10.5258
▁Killer	-10.5273
▁/>*	-10.5278
▁originality	-10.528
▁surreal	-10.5286
▁mi	-10.5288
▁designed	-10.5288
▁failing	-10.5291
▁pr	-10.5298
▁kicks	-10.5313
▁offered	-10.5319
▁cl	-10.5331
▁Lo	-10.5332
top	-10.5336
▁Sho	-10.5337
ok	-10.5343
▁miles	-10.5345
gan	-10.5346
core	-10.5351
▁core	-10.5351
▁Mrs	-10.5352
▁aside	-10.5381
▁thrill	-10.5382
ations	-10.5383
▁bill	-10.5383
Man	-10.5387
▁rubb	-10.54
aught	-10.5418
▁ice	-10.5419
1)	-10.5437
▁exchange	-10.544
▁achieve	-10.5447
▁adults	-10.5507
LY	-10.5508
▁commit	-10.5515
▁pat	-10.5517
▁disc	-10.5542
head	-10.5557
▁ski	-10.5563
Unless	-10.5569
▁Men	-10.5577
▁sole	-10.5579
▁concern	-10.558
ane	-10.5581
dor	-10.5589
▁surely	-10.5606
AD	-10.5622
▁Girl	-10.563
▁UFO	-10.5631
▁image	-10.5637
▁flashback	-10.5638
▁rule	-10.5639
▁voices	-10.5652
ending	-10.5659
▁noise	-10.5662
▁shadow	-10.5663
▁$	-10.5668
▁HU	-10.5694
arm	-10.5702
gar	-10.5708
▁dreams	-10.5716
ft	-10.5725
rden	-10.5757
halfway	-10.5758
where	-10.5761
play	-10.5763
▁weeks	-10.5769
▁thank	-10.5774
nyone	-10.5777
VE	-10.5787
down	-10.5795
writer	-10.5799
wise	-10.5805
SPOILER	-10.5807
From	-10.5815
Also	-10.5815
When	-10.5816
clear	-10.5817
town	-10.5817
▁knowing	-10.5818
saw	-10.5819
▁demand	-10.5833
made	-10.5834
▁succeed	-10.5843
▁center	-10.5845
played	-10.5847
She	-10.5854
looking	-10.5858
▁threat	-10.5863
▁luck	-10.5867
evin	-10.5892
▁California	-10.5893
▁Canadian	-10.5893
▁Kubrick	-10.5893
▁London	-10.5893
▁Obviously	-10.5893
▁Seagal	-10.5893
▁Shiban	-10.5893
▁Wynorski	-10.5893
▁blank	-10.5893
▁curiosity	-10.5893
▁disagree	-10.5893
▁exercise	-10.5893
▁gorgeous	-10.5893
▁gruesome	-10.5893
▁heavily	-10.5893
▁helicopter	-10.5893
▁horrendous	-10.5893
▁incredible	-10.5893
▁scenario	-10.5893
▁splatter	-10.5893
▁terrific	-10.5893
▁tongue	-10.5893
▁trilogy	-10.5893
▁BBC	-10.5893
▁advance	-10.5893
▁attitude	-10.5893
▁drill	-10.5893
▁reputation	-10.5893
▁smile	-10.5893
▁Year	-10.5893
▁Rip	-10.5893
▁gross	-10.5893
▁prevent	-10.5893
▁advise	-10.5893
▁extent	-10.5893
▁memory	-10.5893
▁stunt	-10.5893
▁Paris	-10.5893
▁Characters	-10.5893
▁sympathy	-10.5893
▁lazy	-10.5893
▁therefore	-10.5893
▁quote	-10.5894
▁ticket	-10.5894
▁criticism	-10.5894
▁introduction	-10.5894
▁robot	-10.5894
▁Catholic	-10.5894
▁charge	-10.5894
▁outfit	-10.5894
▁melodramatic	-10.5894
▁Half	-10.5895
▁downhill	-10.5895
▁3/10	-10.5895
▁Evil	-10.5895
▁tank	-10.5896
▁winner	-10.5896
▁Full	-10.5896
▁exorcism	-10.5897
▁Nick	-10.5897
▁impact	-10.5897
▁16	-10.5898
▁ca	-10.5899
▁discussion	-10.5899
▁uninteresting	-10.59
▁USA	-10.5901
▁multipl	-10.5901
▁sympathetic	-10.5902
▁Bava	-10.5902
▁Sarah	-10.5903
▁hitting	-10.5906
▁Hulk	-10.5907
▁Someone	-10.5907
▁Actually	-10.5907
▁Korean	-10.5907
▁metal	-10.5908
▁winning	-10.5908
▁tune	-10.5909
▁Charlie	-10.5911
▁surprises	-10.5913
▁Show	-10.5914
▁IQ	-10.5914
▁required	-10.5914
▁appropriate	-10.5916
▁Does	-10.5919
LO	-10.5921
▁Acting	-10.5924
▁singer	-10.5927
▁End	-10.5932
▁distracting	-10.5935
▁Sally	-10.5935
▁craft	-10.5941
▁SPOILERS	-10.5944
▁enter	-10.5949
▁theatrical	-10.5959
▁board	-10.5959
▁hack	-10.5967
key	-10.5968
see	-10.597
▁Still	-10.5972
▁delivery	-10.5976
▁Lot	-10.5986
Su	-10.599
▁relative	-10.6034
▁murdered	-10.6037
▁handle	-10.6047
Re	-10.6049
▁featured	-10.6059
bit	-10.606
▁4.	-10.6066
ular	-10.6069
▁1.	-10.6076
gre	-10.6085
▁HA	-10.609
▁beast	-10.61
▁arrives	-10.6117
▁rec	-10.6124
▁Lin	-10.6125
▁bath	-10.614
▁nose	-10.6153
eyed	-10.6159
▁deaths	-10.6178
▁commercials	-10.6194
▁rid	-10.6199
ino	-10.6201
▁Sp	-10.6204
ix	-10.6208
ough	-10.6238
▁recommended	-10.624
ging	-10.6246
▁provides	-10.6246
tain	-10.6249
▁souls	-10.6269
▁spoilers	-10.6273
▁emotions	-10.629
ather	-10.6306
▁aliens	-10.6324
▁Add	-10.6326
▁starr	-10.6327
ink	-10.6329
▁z	-10.633
TE	-10.6336
▁Hav	-10.6348
▁decade	-10.6349
▁puppet	-10.6354
▁stereotype	-10.6355
▁reporter	-10.6356
▁bag	-10.6363
▁describ	-10.6365
▁soldier	-10.6369
▁Roman	-10.6375
▁invest	-10.638
▁hip	-10.64
fu	-10.6413
▁Are	-10.6426
OK	-10.6426
▁TO	-10.6436
▁dialogs	-10.6467
▁player	-10.6475
▁Ni	-10.6479
▁discovers	-10.648
ank	-10.6486
▁nu	-10.6486
▁25	-10.6505
▁lover	-10.6515
Second	-10.6528
Like	-10.6529
including	-10.6529
twist	-10.653
awful	-10.653
school	-10.653
when	-10.653
something	-10.6531
Watch	-10.6532
▁featur	-10.6532
▁hunt	-10.6533
▁focuse	-10.6535
▁suggests	-10.6536
Let	-10.6539
▁Cor	-10.6542
lead	-10.6553
▁trick	-10.656
▁Kill	-10.657
▁buil	-10.657
▁Pete	-10.6572
▁proper	-10.6577
▁confuse	-10.658
▁Ex	-10.6588
acting	-10.6589
▁Australia	-10.659
▁Russia	-10.659
▁fe	-10.6596
▁reflect	-10.6599
▁employ	-10.6607
▁YOU	-10.6607
▁assassin	-10.6607
▁explode	-10.6607
▁Boleyn	-10.6607
▁Conroy	-10.6607
▁Epps	-10.6607
▁Magoo	-10.6607
▁Princess	-10.6607
▁circumstances	-10.6607
▁description	-10.6607
▁dinner	-10.6607
▁enemy	-10.6607
▁families	-10.6607
▁homage	-10.6607
▁horrific	-10.6607
▁puzzle	-10.6607
▁religion	-10.6607
▁rival	-10.6607
▁slaughter	-10.6607
▁veteran	-10.6607
▁virus	-10.6607
▁WWII	-10.6607
▁method	-10.6607
▁network	-10.6607
▁prior	-10.6607
▁study	-10.6607
▁Ethan	-10.6607
-13	-10.6607
▁Bridge	-10.6607
▁Anderson	-10.6608
▁basis	-10.6608
▁convey	-10.6608
▁individual	-10.6608
▁North	-10.6608
▁prime	-10.6608
▁psychological	-10.6608
▁props	-10.6608
▁nine	-10.6608
▁Hitch	-10.6608
characterization	-10.6608
▁1950	-10.6608
▁Would	-10.6608
▁cousin	-10.6608
▁pack	-10.6609
▁screw	-10.6609
▁riddle	-10.6609
▁Woodward	-10.6609
▁auto	-10.6609
▁Karen	-10.6609
▁wound	-10.6609
▁fix	-10.661
▁Devil	-10.661
▁generation	-10.6611
▁associate	-10.6611
▁Mac	-10.6611
▁Turner	-10.6611
▁White	-10.6611
END	-10.6612
▁meaningless	-10.6612
▁Robin	-10.6612
▁Tony	-10.6612
▁guilty	-10.6613
▁treatment	-10.6613
▁suspenseful	-10.6614
▁escapes	-10.6614
▁dry	-10.6614
▁axe	-10.6614
▁Marion	-10.6615
▁III	-10.6616
▁reward	-10.6616
▁Moon	-10.6616
▁Jennifer	-10.6617
▁Wish	-10.6618
▁Cuba	-10.6618
▁mob	-10.6619
▁NA	-10.662
▁acceptable	-10.6621
▁pregnan	-10.6622
▁Blue	-10.6622
▁pleasure	-10.6622
▁desired	-10.6623
▁China	-10.6628
▁rushed	-10.6631
han	-10.6634
▁expose	-10.6634
▁Solomon	-10.6634
▁naturally	-10.6635
▁mission	-10.6638
▁dude	-10.6638
▁upset	-10.6641
▁Am	-10.6642
▁powerful	-10.6642
▁ver	-10.6643
stop	-10.6646
ridden	-10.6646
▁dive	-10.6647
▁letter	-10.6655
huck	-10.6661
nny	-10.6662
▁rough	-10.6663
▁ignored	-10.6665
▁Billy	-10.6667
▁endure	-10.667
▁candy	-10.6674
inspired	-10.6679
▁beach	-10.668
▁critical	-10.669
▁sock	-10.6695
▁rolling	-10.6696
▁agreed	-10.6713
▁willing	-10.6718
▁official	-10.6722
appy	-10.6722
▁finale	-10.6723
▁IN	-10.6729
▁mixed	-10.674
▁Total	-10.6743
▁experienced	-10.6749
▁sa	-10.6762
▁explosions	-10.6773
atur	-10.6778
They	-10.6781
▁daughters	-10.6791
▁bucks	-10.6793
ship	-10.6797
▁0	-10.68
▁planet	-10.6802
rilla	-10.6826
▁Hi	-10.685
eer	-10.6854
▁pot	-10.6863
▁cars	-10.6865
▁pictures	-10.6869
rley	-10.6878
▁thanks	-10.6892
▁faced	-10.6903
..."	-10.6918
▁inf	-10.6928
▁monkeys	-10.6932
▁models	-10.6933
▁comp	-10.694
▁wondered	-10.6958
10	-10.6965
▁matters	-10.6968
teen	-10.6975
▁cur	-10.6976
▁Son	-10.6977
▁remembered	-10.6977
nnie	-10.699
▁claims	-10.6994
cha	-10.7003
▁legs	-10.702
▁/>(	-10.7038
▁fare	-10.7044
▁attempting	-10.7059
▁scar	-10.7074
▁Qu	-10.7084
▁pale	-10.7084
▁announce	-10.7103
ula	-10.7106
▁load	-10.7108
▁arrive	-10.7123
zy	-10.7125
▁Spe	-10.7132
▁slap	-10.7135
eel	-10.7151
anni	-10.7165
cid	-10.7216
▁Mu	-10.7224
6)	-10.7232
▁hid	-10.7242
▁entertain	-10.727
50	-10.7291
friend	-10.7294
ify	-10.7297
Although	-10.7299
view	-10.7299
horror	-10.7299
Still	-10.7305
▁types	-10.7307
▁Da	-10.7315
rry	-10.7317
▁Tim	-10.7323
▁refus	-10.7328
▁ro	-10.7329
dog	-10.7333
▁occasional	-10.7344
▁views	-10.7348
▁hook	-10.7358
▁broke	-10.7359
▁colors	-10.736
▁bore	-10.7361
▁Have	-10.7362
▁discuss	-10.737
▁narrat	-10.7372
▁Way	-10.7375
▁danger	-10.7375
▁Roberts	-10.7375
▁melodrama	-10.7375
▁EVER	-10.7375
▁shoe	-10.7375
▁birth	-10.7376
▁qua	-10.7376
▁1940	-10.7377
▁Affleck	-10.7377
▁Barbara	-10.7377
▁Broadway	-10.7377
▁Eagle	-10.7377
▁Estevez	-10.7377
▁Exorcist	-10.7377
▁Horrible	-10.7377
▁Houston	-10.7377
▁MacLaine	-10.7377
▁WATCH	-10.7377
▁companies	-10.7377
▁contrast	-10.7377
▁credibility	-10.7377
▁engaging	-10.7377
▁evidence	-10.7377
▁frustrat	-10.7377
▁generic	-10.7377
▁implausible	-10.7377
▁installment	-10.7377
▁intriguing	-10.7377
▁obnoxious	-10.7377
▁phrase	-10.7377
▁plastic	-10.7377
▁scratch	-10.7377
▁sidekick	-10.7377
▁status	-10.7377
▁subsequent	-10.7377
▁vacation	-10.7377
▁vulgar	-10.7377
▁wardrobe	-10.7377
▁credible	-10.7377
▁sharp	-10.7377
▁thirty	-10.7377
▁wig	-10.7377
▁Douglas	-10.7377
▁Taylor	-10.7377
▁afternoon	-10.7377
▁spark	-10.7377
▁timing	-10.7377
▁Swan	-10.7377
▁audio	-10.7377
▁render	-10.7377
▁tragic	-10.7377
▁DID	-10.7377
▁lift	-10.7377
▁contact	-10.7377
▁cardboard	-10.7377
▁ONLY	-10.7377
▁jealous	-10.7377
▁deputy	-10.7377
▁hint	-10.7377
▁greed	-10.7377
▁link	-10.7377
▁screwball	-10.7377
▁Romero	-10.7377
▁Wisconsin	-10.7377
▁routine	-10.7378
▁football	-10.7378
▁Grade	-10.7378
▁barrel	-10.7378
▁wire	-10.7378
▁Bobby	-10.7378
▁yellow	-10.7378
▁nude	-10.7379
▁Patrick	-10.7379
▁proud	-10.7379
▁Again	-10.7379
▁Wind	-10.738
▁Chase	-10.738
▁spell	-10.738
▁cell	-10.738
▁pants	-10.738
▁influence	-10.738
▁theatre	-10.7381
▁fright	-10.7381
▁ripoff	-10.7381
▁Later	-10.7381
▁storytelling	-10.7381
▁mass	-10.7382
▁insight	-10.7382
▁neck	-10.7383
▁Max	-10.7383
▁Sebastian	-10.7386
▁intense	-10.7387
▁warrior	-10.7387
▁chosen	-10.7387
▁realise	-10.7387
Mr	-10.739
CE	-10.7391
▁necessary	-10.7394
▁crowd	-10.7394
▁Dave	-10.7397
▁Kelly	-10.7398
▁hooker	-10.7399
▁wet	-10.7399
▁realism	-10.74
▁significant	-10.7401
▁bitter	-10.7405
ari	-10.7411
▁House	-10.7411
▁properly	-10.7415
▁Ray	-10.7415
▁Death	-10.742
kip	-10.7423
▁Rob	-10.7427
▁Amy	-10.7428
ON	-10.743
▁event	-10.7433
▁campy	-10.7433
▁whoever	-10.7435
▁Sun	-10.744
▁glimpse	-10.744
▁feed	-10.7443
▁pimp	-10.7445
▁trained	-10.7454
▁West	-10.7455
▁rolled	-10.7458
▁deserved	-10.7462
▁Last	-10.7466
▁Nak	-10.747
▁Cole	-10.747
▁accepted	-10.7471
Ch	-10.7471
▁crying	-10.7472
izing	-10.7483
▁according	-10.7491
ade	-10.7501
▁Plan	-10.751
▁Demons	-10.7514
▁sleeping	-10.7519
▁murderer	-10.752
▁viewed	-10.7525
▁Gree	-10.7528
▁higher	-10.7537
▁critics	-10.7539
▁improve	-10.7546
rise	-10.7546
pped	-10.7548
▁chat	-10.7551
2)	-10.7553
▁tit	-10.7562
CH	-10.7568
▁slip	-10.7569
▁fi	-10.7577
▁rant	-10.7581
iness	-10.7581
Ed	-10.7611
▁results	-10.7613
entin	-10.765
▁owner	-10.7652
▁bon	-10.7655
▁van	-10.7657
▁dim	-10.7658
▁decades	-10.7663
▁Adams	-10.7674
▁cap	-10.7676
▁closed	-10.7677
▁fur	-10.7685
▁thrills	-10.7692
Then	-10.7698
GE	-10.7703
▁explains	-10.7704
hop	-10.7707
Nice	-10.7718
▁collect	-10.772
▁bo	-10.7732
ady	-10.7739
▁Wars	-10.777
▁fighter	-10.7776
▁intention	-10.7783
reak	-10.7802
aking	-10.7815
more	-10.7822
...)	-10.7827
ams	-10.7827
ative	-10.7831
▁committe	-10.7835
▁cliches	-10.7837
maker	-10.7841
wn	-10.7854
▁ear	-10.7854
").	-10.7883
ified	-10.7891
board	-10.7913
vil	-10.792
cking	-10.7934
▁def	-10.7943
▁screenwriter	-10.7949
▁Red	-10.7951
▁angle	-10.7957
▁believed	-10.7964
30	-10.7976
▁Shi	-10.7981
ery	-10.8003
▁invent	-10.8004
zi	-10.8007
▁praise	-10.8027
▁Wal	-10.8032
▁shower	-10.8034
▁extras	-10.8037
▁sounding	-10.8049
ature	-10.806
worthy	-10.8066
ctic	-10.8066
▁Back	-10.8078
ini	-10.8092
▁signs	-10.8093
▁figures	-10.81
shirt	-10.8127
wood	-10.8128
written	-10.8128
ailing	-10.813
Angel	-10.8131
class	-10.8132
Reba	-10.8132
mentioned	-10.8132
walk	-10.8133
house	-10.8135
change	-10.8135
▁lovely	-10.8135
▁suits	-10.8137
watch	-10.8137
let	-10.8137
/10	-10.8141
iff	-10.8149
Did	-10.8149
▁pretend	-10.8152
hero	-10.8157
▁witness	-10.8158
live	-10.8162
▁limit	-10.8162
▁wor	-10.8167
▁adds	-10.817
▁slight	-10.8181
lude	-10.8184
away	-10.8184
▁blond	-10.8189
?).	-10.819
▁slash	-10.819
ddy	-10.8191
▁Part	-10.8191
▁Korea	-10.8192
▁incest	-10.8194
▁affect	-10.8199
▁hype	-10.8205
▁homosexual	-10.8207
▁construct	-10.8207
▁complain	-10.8208
▁Turk	-10.8208
▁cruel	-10.8209
ology	-10.8209
▁bridge	-10.821
▁spectacular	-10.821
▁Assassin	-10.821
▁Aussie	-10.821
▁Exorcism	-10.821
▁Fiction	-10.821
▁Gardner	-10.821
▁Hitler	-10.821
▁Hopkins	-10.821
▁Leigh	-10.821
▁Massacre	-10.821
▁Nielsen	-10.821
▁Nielson	-10.821
▁Plainfield	-10.821
▁School	-10.821
▁Spartans	-10.821
▁Sutherland	-10.821
▁Vietnam	-10.821
▁altogether	-10.821
▁behavior	-10.821
▁colour	-10.821
▁community	-10.821
▁context	-10.821
▁controversial	-10.821
▁degree	-10.821
▁elderly	-10.821
▁execution	-10.821
▁muddled	-10.821
▁pistol	-10.821
▁president	-10.821
▁technique	-10.821
▁France	-10.821
▁corpse	-10.821
▁Plus	-10.821
▁disgrace	-10.821
▁smash	-10.821
▁churn	-10.821
▁Trek	-10.821
▁menacing	-10.821
annon	-10.821
▁Satan	-10.821
▁tolerable	-10.821
▁sickening	-10.821
▁Morgan	-10.821
▁adopt	-10.821
▁surface	-10.821
▁prostitute	-10.821
▁cowboy	-10.821
▁Stay	-10.821
▁joy	-10.821
▁Camer	-10.821
▁calm	-10.821
Silence	-10.821
▁health	-10.821
▁thief	-10.821
llegal	-10.821
▁erotic	-10.821
▁attach	-10.821
▁Native	-10.8211
▁Troma	-10.8211
▁kiss	-10.8211
▁bleed	-10.8211
▁Theater	-10.8211
▁elementary	-10.8211
▁remove	-10.8211
▁snake	-10.8211
▁hostage	-10.8212
▁Hans	-10.8212
▁resemblance	-10.8212
▁Descent	-10.8212
▁European	-10.8213
▁Mike	-10.8213
▁trait	-10.8213
▁Check	-10.8213
▁jobs	-10.8213
▁menace	-10.8214
▁Father	-10.8214
▁intellectual	-10.8214
▁label	-10.8215
▁Edward	-10.8215
▁Down	-10.8215
▁Donna	-10.8217
rench	-10.8219
▁Merchant	-10.8221
▁Natalie	-10.8221
▁structure	-10.8221
UE	-10.8221
▁chest	-10.8221
▁Bush	-10.8223
▁media	-10.8225
▁JP	-10.8225
▁Heche	-10.8227
▁exit	-10.8227
▁fictional	-10.8227
▁Gold	-10.8228
▁Family	-10.8228
▁Bruno	-10.8228
▁Special	-10.8228
▁boost	-10.8228
▁Rent	-10.8229
▁shuttl	-10.8229
▁Agar	-10.823
▁sink	-10.823
▁Something	-10.823
▁tiny	-10.8231
boy	-10.8232
▁Ei	-10.8232
▁Galaxina	-10.8235
▁dancer	-10.8237
▁brand	-10.824
▁Soultaker	-10.8242
▁hill	-10.8243
▁forgive	-10.8245
▁Myster	-10.8247
▁whenever	-10.8249
▁Bloodline	-10.8249
▁Land	-10.8254
ened	-10.8255
▁Rose	-10.8257
▁flying	-10.8258
▁lesson	-10.8258
Danny	-10.8259
▁Boll	-10.8264
▁Jay	-10.8264
▁rob	-10.8264
▁effectively	-10.8267
▁lucky	-10.8271
▁Julian	-10.8273
▁unlikely	-10.8273
▁ONE	-10.8274
▁ju	-10.8292
▁May	-10.8295
▁Sel	-10.8297
▁continued	-10.8298
▁returned	-10.83
▁Na	-10.8307
lock	-10.8309
▁dinosaurs	-10.8313
▁subplots	-10.8337
▁appealing	-10.834
▁Ken	-10.8341
▁jumping	-10.8343
handed	-10.8347
ford	-10.8348
▁bare	-10.8351
▁inane	-10.8355
▁sexually	-10.8356
▁ni	-10.8359
Donald	-10.836
Palm	-10.8362
AC	-10.8366
▁sales	-10.8371
▁intentional	-10.8379
▁logical	-10.8379
leen	-10.8388
▁fired	-10.839
▁toward	-10.8401
ised	-10.8403
▁followed	-10.8411
fa	-10.843
▁Los	-10.8436
psy	-10.8436
mate	-10.8444
▁photos	-10.8453
▁tears	-10.8453
rel	-10.8463
▁Joan	-10.8463
▁passed	-10.8466
▁Lil	-10.8469
▁Christians	-10.8471
▁continual	-10.8481
▁introduc	-10.8485
▁mod	-10.8487
▁Rai	-10.8492
▁speaks	-10.8501
onic	-10.8517
▁judg	-10.8524
are	-10.855
wing	-10.8561
ena	-10.8562
losing	-10.8567
▁symbol	-10.8574
▁prepare	-10.8584
,000	-10.859
▁covered	-10.8604
▁rag	-10.8613
love	-10.8632
▁fund	-10.8641
▁officers	-10.8643
▁BE	-10.8667
liners	-10.8668
▁Ran	-10.8677
tun	-10.8708
ied	-10.8709
▁strip	-10.871
▁Jam	-10.8717
▁news	-10.8726
▁Fi	-10.873
▁copie	-10.8749
▁ste	-10.8762
AL	-10.8768
▁Medi	-10.878
iz	-10.8782
▁judge	-10.8786
▁Die	-10.8793
hack	-10.8801
▁humans	-10.8804
actor	-10.8806
▁teach	-10.8819
▁breathe	-10.8819
▁require	-10.8827
nel	-10.8836
▁solve	-10.8839
▁mountain	-10.8854
▁photo	-10.886
▁tear	-10.886
▁laughabl	-10.8885
▁cow	-10.8888
▁inform	-10.8899
▁caring	-10.8901
▁bone	-10.8913
umber	-10.8922
▁feelings	-10.8925
hard	-10.8941
lumber	-10.8948
▁refer	-10.896
95	-10.8968
body	-10.8987
▁Tri	-10.8989
▁descend	-10.899
look	-10.8992
grade	-10.8996
▁den	-10.9003
rett	-10.9007
▁Charles	-10.9013
▁Gra	-10.9016
kill	-10.9019
▁dec	-10.9022
known	-10.9036
Psycho	-10.904
Good	-10.9041
piece	-10.9041
human	-10.9041
Just	-10.9041
different	-10.9041
bound	-10.9044
box	-10.9045
!!!!!	-10.9048
wait	-10.9048
book	-10.9051
▁distract	-10.9056
law	-10.9057
Bone	-10.9067
Yes	-10.9085
▁sudden	-10.9085
▁receive	-10.9089
▁preach	-10.9092
xcept	-10.9096
▁delight	-10.9103
▁natural	-10.9104
▁bike	-10.9107
▁progress	-10.9115
▁Old	-10.9117
eyond	-10.9117
▁price	-10.9118
▁text	-10.9118
▁environment	-10.9119
▁1978	-10.9119
▁Writer	-10.9119
▁creativity	-10.9119
▁genetic	-10.9119
2:37	-10.9119
Jurassic	-10.9119
educated	-10.9119
▁Bunuel	-10.9119
▁DEAD	-10.9119
▁Hauer	-10.9119
▁Lynch	-10.9119
▁Monster	-10.9119
▁Rachael	-10.9119
▁Russell	-10.9119
▁argue	-10.9119
▁astonishing	-10.9119
▁caricature	-10.9119
▁ceiling	-10.9119
▁chapter	-10.9119
▁clown	-10.9119
▁condition	-10.9119
▁cynical	-10.9119
▁devoid	-10.9119
▁illogical	-10.9119
▁morning	-10.9119
▁patient	-10.9119
▁rabid	-10.9119
▁security	-10.9119
▁skull	-10.9119
▁soccer	-10.9119
▁submarine	-10.9119
▁swallow	-10.9119
▁synopsis	-10.9119
▁Kersey	-10.9119
▁Silver	-10.9119
▁chuckle	-10.9119
▁dubbing	-10.9119
▁flood	-10.9119
▁interpretation	-10.9119
▁primar	-10.9119
▁Scene	-10.9119
▁bottle	-10.9119
▁position	-10.9119
▁BIG	-10.9119
▁afford	-10.9119
▁jean	-10.9119
▁psychopath	-10.9119
▁Wild	-10.9119
▁broadcast	-10.9119
▁Alec	-10.9119
▁robbery	-10.9119
▁consum	-10.9119
▁vicious	-10.9119
▁Simp	-10.9119
▁Clint	-10.9119
▁Alfre	-10.9119
▁Brolin	-10.9119
▁minimal	-10.9119
▁miscast	-10.912
▁tribe	-10.912
▁transition	-10.912
▁dismiss	-10.912
▁bitten	-10.912
whilst	-10.912
▁birthday	-10.912
Third	-10.912
▁Field	-10.912
▁stylish	-10.912
▁awake	-10.912
▁1930	-10.912
▁spiritual	-10.9121
▁investigation	-10.9121
▁massive	-10.9121
▁laser	-10.9121
▁pomp	-10.9121
▁Game	-10.9121
▁afore	-10.9122
▁moronic	-10.9122
▁daily	-10.9122
▁intent	-10.9122
▁Nobody	-10.9122
▁kink	-10.9122
▁mute	-10.9123
▁relie	-10.9123
▁bank	-10.9123
▁Know	-10.9123
▁poker	-10.9123
▁neighbor	-10.9123
▁Art	-10.9124
swimming	-10.9124
▁elsewhere	-10.9124
▁Light	-10.9124
▁Johnny	-10.9124
▁basement	-10.9124
▁besides	-10.9124
▁Hart	-10.9124
▁maintain	-10.9124
▁Brian	-10.9125
▁Fair	-10.9125
▁Israeli	-10.9126
▁DON	-10.9126
▁shelf	-10.9127
▁Hill	-10.9128
▁quirky	-10.9129
▁amused	-10.9129
▁Adventure	-10.9131
▁President	-10.9131
▁Naturally	-10.9131
▁Johnson	-10.9131
▁maniac	-10.9131
▁Percy	-10.9131
▁Woman	-10.9132
▁steer	-10.9133
▁choppy	-10.9134
ification	-10.9134
▁fourth	-10.9136
▁assure	-10.9137
▁circ	-10.9137
▁address	-10.9137
▁Claire	-10.9139
▁Nightbeast	-10.9139
▁Police	-10.9139
▁born	-10.9139
▁topless	-10.9142
▁warn	-10.9144
▁darkness	-10.9144
Hopefully	-10.9144
▁dragged	-10.9145
▁chopped	-10.9145
▁Over	-10.9146
lip	-10.9146
▁Three	-10.9146
▁insist	-10.9146
▁Miss	-10.9147
▁beer	-10.9148
acted	-10.9149
▁Pul	-10.9149
▁threatening	-10.9155
▁organ	-10.9157
▁tripe	-10.9159
▁Take	-10.9162
▁lowest	-10.9164
▁Run	-10.9164
▁impos	-10.9165
▁actresses	-10.9166
▁wandering	-10.9172
▁busy	-10.9175
au	-10.9175
▁ripping	-10.9175
▁Get	-10.9176
▁dated	-10.9176
▁longest	-10.9177
Darcy	-10.9179
▁lab	-10.9183
▁2)	-10.9187
▁icon	-10.9188
▁incoherent	-10.9188
cience	-10.9191
▁fights	-10.9194
▁lit	-10.9195
▁pretending	-10.9195
▁lifeless	-10.9201
▁Time	-10.9202
▁Bull	-10.9203
▁gain	-10.9204
IRA	-10.9211
served	-10.9216
▁spoiled	-10.9216
▁:)	-10.9218
▁encourage	-10.9219
yes	-10.9223
▁weirdo	-10.9225
▁Rest	-10.9231
▁breasts	-10.9233
▁Boo	-10.9234
▁spin	-10.9234
vid	-10.9244
▁tra	-10.9247
▁anger	-10.9249
▁eats	-10.9256
▁magical	-10.9287
▁suffering	-10.929
▁Dar	-10.9293
▁opened	-10.9307
▁reduce	-10.9323
▁performer	-10.9323
▁kicked	-10.9331
uel	-10.9333
▁sports	-10.9335
▁/>***	-10.9341
By	-10.9352
▁ya	-10.9361
▁aboard	-10.9366
▁stops	-10.9375
mber	-10.9378
▁button	-10.938
▁killings	-10.9384
redeemable	-10.9388
▁Andy	-10.9408
▁ears	-10.9416
mud	-10.9428
▁breath	-10.9428
▁ahead	-10.9433
▁Bla	-10.9446
▁titled	-10.9453
▁dropp	-10.9461
▁goal	-10.9463
▁nicely	-10.9464
iya	-10.9472
mming	-10.9475
Ma	-10.9484
▁noises	-10.949
▁examples	-10.9503
atory	-10.9522
▁rights	-10.9524
▁classics	-10.9525
ister	-10.953
▁king	-10.9536
▁placed	-10.9538
▁rings	-10.9544
tious	-10.9562
pel	-10.9579
TH	-10.961
▁blows	-10.9615
▁warm	-10.9619
ief	-10.9625
ple	-10.9627
▁screams	-10.9651
ega	-10.9662
atter	-10.9665
▁ages	-10.9684
▁package	-10.9692
▁ripp	-10.9694
▁CA	-10.9717
his	-10.9746
▁Bor	-10.9747
lle	-10.9752
▁Gen	-10.9758
enter	-10.9778
▁streets	-10.9781
mie	-10.9798
NN	-10.9805
80	-10.9805
itty	-10.9806
▁flaw	-10.9813
▁fed	-10.9814
▁chang	-10.9818
▁pee	-10.9824
▁spots	-10.9831
▁stink	-10.985
come	-10.9851
Clar	-10.9856
▁nightmare	-10.9858
▁buck	-10.9869
▁dollar	-10.9878
j	-10.989
"?	-10.9897
▁$2	-10.9925
col	-10.9933
▁!!!	-10.995
lon	-10.9958
des	-10.9959
▁/	-10.9966
lk	-10.9969
▁mistakes	-10.9972
▁purchas	-10.9986
illa	-11.0003
▁interviews	-11.0003
▁annoy	-11.0013
under	-11.0015
ith	-11.0016
▁193	-11.0022
▁produc	-11.0031
Komodo	-11.0041
famous	-11.0041
Christian	-11.0041
Michael	-11.0041
video	-11.0042
scene	-11.0042
See	-11.0045
father	-11.0046
mark	-11.0048
usual	-11.0048
dead	-11.0048
▁SO	-11.0051
▁---	-11.0053
Bad	-11.0056
▁che	-11.006
▁surround	-11.006
▁wander	-11.0061
▁Hey	-11.0061
▁corn	-11.0061
▁impress	-11.0064
uthern	-11.007
Of	-11.007
goers	-11.0078
break	-11.0079
ility	-11.008
▁theaters	-11.0082
▁hysterical	-11.0083
▁shoulder	-11.0088
▁haunt	-11.0088
▁dirt	-11.0092
▁sleaz	-11.0096
▁Africa	-11.0101
▁admire	-11.0102
abo	-11.0103
ollywood	-11.0112
▁pig	-11.0114
conscious	-11.0114
▁vanish	-11.0114
▁suspen	-11.0115
▁protect	-11.0116
▁confess	-11.0116
VERY	-11.0117
Spoiler	-11.0117
▁specific	-11.0117
▁REAL	-11.0119
▁broad	-11.0119
convict	-11.0119
Cimarron	-11.0119
conservative	-11.0119
–	-11.0119
▁Academy	-11.0119
▁Calvin	-11.0119
▁Cravat	-11.0119
▁England	-11.0119
▁Gordon	-11.0119
▁Jewish	-11.0119
▁LOVE	-11.0119
▁NEVER	-11.0119
▁Pimpernel	-11.0119
▁Pontypool	-11.0119
▁Rourke	-11.0119
▁Segal	-11.0119
▁Simmons	-11.0119
▁advantage	-11.0119
▁blockbuster	-11.0119
▁champion	-11.0119
▁chupacabra	-11.0119
▁clumsy	-11.0119
▁depressed	-11.0119
▁derivative	-11.0119
▁determin	-11.0119
▁embarrassed	-11.0119
▁exaggerated	-11.0119
▁generous	-11.0119
▁gimmick	-11.0119
▁guarantee	-11.0119
▁inconsistent	-11.0119
▁jazz	-11.0119
▁massacre	-11.0119
▁mirror	-11.0119
▁nurse	-11.0119
▁obscure	-11.0119
▁ordinary	-11.0119
▁politics	-11.0119
▁racist	-11.0119
▁sacrifice	-11.0119
▁silver	-11.0119
▁sloppy	-11.0119
▁stilted	-11.0119
▁thorough	-11.0119
▁unfair	-11.0119
▁vault	-11.0119
▁widow	-11.0119
▁wrestler	-11.0119
▁Gabriel	-11.0119
▁Shaw	-11.0119
▁Zeus	-11.0119
▁balance	-11.0119
▁edgy	-11.0119
▁imitation	-11.0119
▁Miller	-11.0119
▁Shame	-11.0119
▁incident	-11.0119
▁quiet	-11.0119
▁ultra	-11.0119
▁Underworld	-11.0119
▁fame	-11.0119
▁limp	-11.0119
▁troop	-11.0119
▁LOT	-11.0119
▁thru	-11.0119
▁Arab	-11.0119
▁internet	-11.0119
▁paranoi	-11.0119
▁Henry	-11.0119
▁banal	-11.0119
▁gift	-11.0119
▁entry	-11.0119
▁sneak	-11.0119
▁Jaws	-11.0119
▁immortal	-11.0119
▁grandmother	-11.0119
▁Smithee	-11.0119
▁Power	-11.0119
▁task	-11.0119
▁stale	-11.0119
▁urge	-11.0119
numbing	-11.0119
valent	-11.0119
▁Cannes	-11.0119
▁foreign	-11.0119
▁Olivi	-11.0119
▁behave	-11.0119
▁Evans	-11.0119
▁abrupt	-11.0119
▁journ	-11.0119
▁Navy	-11.012
rough	-11.012
DAY	-11.012
▁marry	-11.012
▁Women	-11.012
▁presumably	-11.012
▁geek	-11.012
▁Nazi	-11.012
▁Sunday	-11.012
▁dismal	-11.012
▁bird	-11.012
▁lord	-11.012
▁private	-11.012
▁Isabelle	-11.012
▁electric	-11.0121
▁chain	-11.0121
▁punishment	-11.0121
▁Sophi	-11.0121
▁guide	-11.0121
▁possession	-11.0121
▁closing	-11.0121
▁rain	-11.0121
▁Chain	-11.0121
▁imagery	-11.0121
▁harm	-11.0121
▁Emma	-11.0121
▁pressure	-11.0121
▁foul	-11.0122
▁clock	-11.0122
▁Baker	-11.0122
sensiti	-11.0122
▁ray	-11.0122
▁resort	-11.0122
▁FX	-11.0122
▁unbearable	-11.0123
▁nonexistent	-11.0123
▁mansion	-11.0123
90	-11.0123
▁2/10	-11.0123
▁Leoni	-11.0124
▁Univers	-11.0124
▁cancel	-11.0124
▁Baldwin	-11.0124
▁celluloid	-11.0124
▁irrelevant	-11.0124
▁2000	-11.0124
▁fence	-11.0124
▁Mother	-11.0124
▁Uwe	-11.0125
▁mock	-11.0125
▁Goodman	-11.0125
▁guest	-11.0125
▁Right	-11.0126
▁sadistic	-11.0126
▁Hunter	-11.0126
▁everywhere	-11.0126
▁Jackie	-11.0127
▁imprisoned	-11.0127
▁Asia	-11.0127
▁Christie	-11.0127
*1/2	-11.0128
▁ego	-11.0128
▁fancy	-11.0128
▁Gary	-11.0129
Homecoming	-11.0129
▁Six	-11.0129
▁spooky	-11.013
▁overlook	-11.013
▁sold	-11.013
▁Fright	-11.0131
▁Whatever	-11.0132
▁depiction	-11.0132
cro	-11.0132
▁Daniel	-11.0132
▁1/2	-11.0132
erior	-11.0134
▁UK	-11.0134
THING	-11.0135
▁turd	-11.0136
▁hopefully	-11.0137
▁superb	-11.0137
▁Fall	-11.0138
▁offended	-11.0141
▁Furthermore	-11.0141
▁Scout	-11.0141
▁24	-11.0141
▁WHY	-11.0142
▁press	-11.0144
▁pause	-11.0144
▁dear	-11.0146
▁investigating	-11.0147
▁hopeless	-11.0147
name	-11.0149
▁Mick	-11.015
▁partner	-11.0151
ground	-11.0155
▁bond	-11.0157
▁Ghost	-11.0158
▁cooking	-11.0159
▁stalk	-11.016
▁Macy	-11.0162
▁grabb	-11.0162
▁Mist	-11.0164
▁Pare	-11.0164
▁investigate	-11.0164
rous	-11.0167
▁menu	-11.0169
▁annoyed	-11.0169
▁flawed	-11.017
▁Save	-11.0171
▁handled	-11.0174
Ryn	-11.0186
ggy	-11.0187
aked	-11.019
▁stupidest	-11.0191
▁vision	-11.0192
▁visually	-11.0198
▁cheated	-11.0199
▁reasonable	-11.0201
▁correctly	-11.0207
▁user	-11.0208
Car	-11.0208
bar	-11.0209
▁related	-11.0211
ham	-11.022
▁relationships	-11.022
▁fooled	-11.0221
▁twi	-11.0225
▁Card	-11.0229
▁mate	-11.0233
▁SPOILER	-11.0239
▁training	-11.0241
▁Germany	-11.0244
▁Andrews	-11.0246
X	-11.0247
▁brains	-11.0248
▁cameras	-11.0249
▁loosely	-11.0249
▁charming	-11.0253
▁purchase	-11.0254
AST	-11.0268
▁Davies	-11.0271
rick	-11.0271
▁awhile	-11.0273
▁motives	-11.0274
?!?	-11.0274
▁dimensional	-11.0283
▁Gian	-11.0288
▁***	-11.0295
▁hanging	-11.0297
▁referr	-11.0298
▁Arm	-11.03
▁Grant	-11.0305
▁aristocrat	-11.0313
▁rot	-11.0317
▁Per	-11.0318
▁hits	-11.0326
aving	-11.0341
▁actions	-11.0343
▁seeking	-11.0343
▁ignoran	-11.0352
BO	-11.0354
▁row	-11.0358
▁ninjas	-11.0359
hal	-11.0376
erie	-11.0377
▁Pi	-11.0378
▁nightmares	-11.0388
▁reache	-11.039
beat	-11.0391
jo	-11.0403
▁lately	-11.0406
dam	-11.0418
▁fly	-11.0421
▁topic	-11.0433
ien	-11.0443
Ho	-11.0467
▁lett	-11.0476
ella	-11.0492
▁UFOs	-11.0532
▁rules	-11.0532
▁beating	-11.0537
▁tool	-11.0557
ENT	-11.0558
lit	-11.0574
▁reports	-11.0591
rent	-11.0594
▁summ	-11.0601
▁masks	-11.062
rock	-11.0627
▁maker	-11.064
rig	-11.0656
▁Wor	-11.0674
▁learns	-11.0687
ONE	-11.0691
▁visuals	-11.071
▁grows	-11.0713
▁loves	-11.0716
▁shak	-11.072
▁rif	-11.0723
▁westerns	-11.0738
▁stare	-11.0738
▁towns	-11.0739
▁continu	-11.0748
abb	-11.0753
▁medi	-11.0779
efore	-11.0785
▁BL	-11.0797
▁Adam	-11.0808
▁Mee	-11.0813
list	-11.0824
blown	-11.0834
▁Ring	-11.0834
odd	-11.0858
▁jumps	-11.0862
▁Sch	-11.0866
▁LA	-11.0878
▁tr	-11.0882
▁Cut	-11.0888
▁disco	-11.0892
▁11	-11.0895
cop	-11.0897
▁scares	-11.0898
TO	-11.0909
▁exceptions	-11.0922
ological	-11.0929
▁mins	-11.0932
ji	-11.0947
▁pulls	-11.0948
▁improv	-11.0949
▁ninja	-11.0969
▁explosion	-11.0973
▁Ava	-11.0976
▁skill	-11.099
▁weapon	-11.0991
ability	-11.0991
▁sport	-11.1003
bsolutely	-11.1021
▁deform	-11.1023
spect	-11.1032
Speak	-11.1047
ficial	-11.1053
▁hunter	-11.1055
did	-11.1059
▁sca	-11.1059
▁creep	-11.1069
gin	-11.1069
▁trap	-11.1072
IDE	-11.1076
▁wood	-11.1101
▁pal	-11.1102
▁bite	-11.1105
Death	-11.1106
▁mode	-11.111
▁expos	-11.1124
vision	-11.1147
craft	-11.1148
Next	-11.1149
Zombie	-11.1151
Avoid	-11.1152
Where	-11.1152
Please	-11.1152
minute	-11.1152
doubt	-11.1152
flick	-11.1153
Star	-11.1153
script	-11.1153
scary	-11.1153
because	-11.1153
forward	-11.1154
Jim	-11.1156
Night	-11.1157
great	-11.1157
turn	-11.1158
SPOILERS	-11.1159
15	-11.1159
fight	-11.1161
▁identi	-11.1165
▁photograph	-11.1171
llar	-11.1171
La	-11.1177
Here	-11.1178
▁establish	-11.1179
except	-11.1179
▁Rid	-11.1183
▁unexpected	-11.1193
▁convenient	-11.1194
▁bla	-11.1197
hand	-11.1207
▁unbelievabl	-11.121
▁quit	-11.1211
▁stole	-11.1215
▁transform	-11.1224
▁Water	-11.1225
▁Europe	-11.1227
▁Job	-11.1227
▁Patric	-11.1227
ato	-11.1228
lectric	-11.1229
▁Count	-11.1229
rivate	-11.1229
Pro	-11.1229
▁punish	-11.123
conceiv	-11.123
▁Spielberg	-11.123
▁bargain	-11.123
▁crawl	-11.123
▁participat	-11.123
▁pleasant	-11.123
▁pseudo	-11.123
▁simulat	-11.123
▁throat	-11.123
▁zoom	-11.123
Acacia	-11.123
ergeant	-11.123
indulgent	-11.123
ñ	-11.123
▁Angelique	-11.123
▁Argento	-11.123
▁Astaire	-11.123
▁Burke	-11.123
▁Buscemi	-11.123
▁Galactica	-11.123
▁Hospital	-11.123
▁Krige	-11.123
▁Mexican	-11.123
▁Picture	-11.123
▁Wilson	-11.123
▁adequate	-11.123
▁biography	-11.123
▁bounty	-11.123
▁contemporary	-11.123
▁divorce	-11.123
▁enemies	-11.123
▁enthusiasm	-11.123
▁evoke	-11.123
▁explosive	-11.123
▁fantasies	-11.123
▁filth	-11.123
▁flimsy	-11.123
▁giggle	-11.123
▁inspiration	-11.123
▁irritate	-11.123
▁journalist	-11.123
▁mediocrity	-11.123
▁monotone	-11.123
▁nervous	-11.123
▁nowadays	-11.123
▁outrageous	-11.123
▁perspective	-11.123
▁possibility	-11.123
▁prequel	-11.123
▁profound	-11.123
▁racism	-11.123
▁recognition	-11.123
▁resource	-11.123
▁ridicule	-11.123
▁schlock	-11.123
▁silence	-11.123
▁statue	-11.123
▁supreme	-11.123
▁technology	-11.123
▁unwatchable	-11.123
▁vomit	-11.123
▁Byrne	-11.123
▁Children	-11.123
▁Katie	-11.123
▁absent	-11.123
▁believing	-11.123
▁recycled	-11.123
▁/>4/10	-11.123
▁Actor	-11.123
▁gritty	-11.123
▁inhabit	-11.123
▁racial	-11.123
▁transfer	-11.123
▁welcome	-11.123
▁worried	-11.123
Compton	-11.123
▁/>3/10	-11.123
▁Hawk	-11.123
▁Price	-11.123
▁Smile	-11.123
▁Stratten	-11.123
▁telephone	-11.123
▁Tweed	-11.123
▁burst	-11.123
▁corrupt	-11.123
▁region	-11.123
▁remarks	-11.123
▁tiring	-11.123
▁Natas	-11.123
▁exceed	-11.123
▁heaven	-11.123
▁Awful	-11.123
▁Graham	-11.123
▁raw	-11.123
▁oppos	-11.123
▁debt	-11.1231
▁betray	-11.1231
▁alarm	-11.1231
▁Fast	-11.1231
▁Bradley	-11.1231
▁gripping	-11.1231
▁spread	-11.1231
▁Hayes	-11.1231
▁Pimp	-11.1231
▁kung	-11.1231
▁barbershop	-11.1231
▁bumbl	-11.1231
▁Castro	-11.1231
▁thumb	-11.1231
▁glass	-11.1231
▁caption	-11.1231
▁Bay	-11.1231
▁tonight	-11.1231
▁flee	-11.1231
▁aircraft	-11.1231
▁exploration	-11.1231
▁uncomfortable	-11.1232
▁sentimental	-11.1232
▁surrealism	-11.1232
▁roof	-11.1232
▁executive	-11.1232
▁jock	-11.1232
▁reject	-11.1232
▁trite	-11.1232
▁missile	-11.1233
▁injur	-11.1233
▁swing	-11.1233
▁duty	-11.1233
rural	-11.1234
▁Barry	-11.1234
▁laid	-11.1234
▁equi	-11.1234
▁hideous	-11.1234
▁foolish	-11.1234
UR	-11.1234
▁narration	-11.1234
▁inspire	-11.1234
▁EVERY	-11.1235
▁Mason	-11.1235
▁thick	-11.1235
▁Latin	-11.1235
▁princess	-11.1235
▁Bond	-11.1235
▁Neil	-11.1235
▁cinematographer	-11.1236
▁MAN	-11.1236
▁involvement	-11.1236
▁toilet	-11.1237
▁Thos	-11.1237
▁abduction	-11.1237
▁flight	-11.1238
▁Pres	-11.1238
▁scrap	-11.1238
▁nerd	-11.1238
▁pitiful	-11.1238
▁labor	-11.1239
▁personality	-11.1241
▁Italy	-11.1241
▁Weber	-11.1241
▁bold	-11.1242
▁spoken	-11.1242
▁Stick	-11.1242
▁grainy	-11.1242
▁path	-11.1242
▁Brand	-11.1243
uous	-11.1244
▁ironic	-11.1244
▁Meanwhile	-11.1245
▁Original	-11.1245
▁inherit	-11.1245
▁Music	-11.1245
▁Fang	-11.1245
▁Low	-11.1246
▁belt	-11.1246
▁Direction	-11.1246
▁loss	-11.1248
▁settle	-11.1248
▁Q	-11.1249
▁frequently	-11.1249
▁hesita	-11.1249
itz	-11.125
▁humanity	-11.1253
▁defend	-11.1254
▁honor	-11.1255
▁Queen	-11.1255
▁faithful	-11.1256
▁Quick	-11.1258
▁Vall	-11.1259
▁Hence	-11.1259
▁outcome	-11.1259
▁Box	-11.126
▁tax	-11.126
▁scheme	-11.1262
▁laughter	-11.1263
▁Arthur	-11.1264
▁Friday	-11.1264
hear	-11.1267
▁Nash	-11.1268
▁padding	-11.1268
▁satisfying	-11.1268
▁compos	-11.1269
▁Alas	-11.127
▁pin	-11.1271
▁Finally	-11.1274
▁tin	-11.128
▁characteristic	-11.128
witt	-11.1281
▁Made	-11.1282
▁accompani	-11.1282
▁senseless	-11.1283
▁reel	-11.1283
▁Believ	-11.1286
▁walls	-11.1287
▁PC	-11.1288
▁Within	-11.129
▁overacting	-11.1291
▁inject	-11.1291
▁removed	-11.1295
▁spy	-11.1295
▁Hand	-11.1296
▁Play	-11.1296
stopping	-11.1296
▁surrounding	-11.1296
▁invented	-11.1298
ousin	-11.1298
▁spare	-11.13
▁chases	-11.13
▁mistaken	-11.1302
▁refused	-11.1303
▁Party	-11.1303
▁established	-11.1305
▁Brad	-11.1308
▁critters	-11.1309
▁cake	-11.1311
▁Chi	-11.1311
▁Next	-11.1313
▁centered	-11.1315
▁achieved	-11.1317
▁farce	-11.1318
▁boot	-11.1318
▁height	-11.1328
▁lying	-11.1334
▁tail	-11.1335
▁manager	-11.1343
miss	-11.135
▁stated	-11.1358
▁Poe	-11.1359
▁segments	-11.1372
▁ru	-11.138
▁fate	-11.1391
EAR	-11.1398
▁Eve	-11.1401
▁hilariously	-11.1406
▁slid	-11.1411
▁Daw	-11.1412
mall	-11.1418
▁insulting	-11.1423
aries	-11.1425
.......	-11.1426
▁Band	-11.1429
▁shirts	-11.1436
▁sitcoms	-11.1436
▁seasons	-11.1446
▁cards	-11.1468
▁rebels	-11.1468
▁terrorists	-11.1468
▁fingers	-11.1468
▁Republican	-11.1478
hrow	-11.1478
▁Ko	-11.1498
▁fest	-11.1502
▁AC	-11.151
fire	-11.1519
actors	-11.152
▁Nin	-11.1527
lor	-11.1537
erg	-11.1543
▁harder	-11.1545
sai	-11.1559
▁beautifully	-11.1562
▁requires	-11.1566
▁bones	-11.1574
▁infinite	-11.1581
▁Vinn	-11.1582
Desp	-11.1584
tha	-11.1588
shing	-11.16
▁intentions	-11.1604
▁Ger	-11.1606
▁arc	-11.1609
▁panic	-11.1613
rian	-11.1614
finitely	-11.1616
▁Your	-11.1619
▁popp	-11.1628
▁sin	-11.1632
▁sla	-11.1637
▁rat	-11.1638
rman	-11.164
Micheal	-11.1655
▁rap	-11.1657
omic	-11.1661
udge	-11.1663
▁su	-11.1678
▁lovers	-11.1684
▁Girls	-11.1696
▁concerns	-11.1698
▁hearing	-11.1702
▁contribute	-11.1723
▁brave	-11.1729
eez	-11.1736
▁mentioning	-11.1757
▁domin	-11.1769
▁cheaply	-11.1791
▁communicate	-11.1809
▁forty	-11.1809
▁dig	-11.1814
mal	-11.182
▁Bra	-11.1841
LL	-11.1851
▁Leon	-11.1864
▁gate	-11.1865
▁awards	-11.1868
▁17	-11.1891
▁Guys	-11.1895
▁cata	-11.1912
uge	-11.1924
Lady	-11.1925
▁IV	-11.1944
Or	-11.1946
▁Gil	-11.1949
oxic	-11.195
▁drinks	-11.1962
▁critic	-11.1968
▁ME	-11.1995
▁Wo	-11.1995
main	-11.2007
anning	-11.2017
▁dare	-11.2027
▁Note	-11.2033
▁redeem	-11.2049
aut	-11.2069
▁protagonists	-11.207
gro	-11.2083
Sh	-11.2104
rich	-11.2124
▁generate	-11.2131
▁predict	-11.2132
▁Bro	-11.2136
▁dish	-11.2145
▁drives	-11.2169
mish	-11.2177
▁Amazon	-11.2217
▁finger	-11.2218
▁rebel	-11.222
▁eight	-11.222
▁Fun	-11.2237
▁owned	-11.2241
▁Strange	-11.2246
▁san	-11.2268
▁terrorist	-11.2275
▁Ted	-11.2275
EST	-11.2285
ANT	-11.23
ware	-11.2312
▁guessing	-11.2323
▁instant	-11.2331
▁Unc	-11.2374
AND	-11.2394
Elephant	-11.2397
Honestly	-11.2398
hunter	-11.2398
funny	-11.2399
Oldboy	-11.2401
Okay	-11.2401
Hellraiser	-11.2401
Robert	-11.2402
husband	-11.2402
high	-11.2403
character	-11.2403
people	-11.2403
actress	-11.2403
will	-11.2403
60	-11.2404
motion	-11.2404
Look	-11.2406
load	-11.2413
series	-11.2415
▁chill	-11.2421
▁fascinat	-11.2423
▁grab	-11.2426
▁arrest	-11.243
God	-11.243
ently	-11.2438
cast	-11.2441
▁rapid	-11.2444
▁ultimate	-11.2446
▁unfortunate	-11.2446
hold	-11.245
▁jerk	-11.245
▁village	-11.245
▁faith	-11.2451
▁arm	-11.2451
▁Hope	-11.2451
▁desire	-11.2452
▁fade	-11.2452
▁necessar	-11.2452
▁marrie	-11.2452
umble	-11.2454
▁circu	-11.2455
Rest	-11.2458
▁replace	-11.246
▁styl	-11.2461
▁chose	-11.2462
▁origin	-11.2463
▁crow	-11.2464
cat	-11.2465
ould	-11.2472
▁sandwich	-11.2473
▁ficti	-11.2476
▁compet	-11.2477
▁emphasi	-11.2478
onsidering	-11.2479
▁Japan	-11.248
>	-11.248
_	-11.248
www	-11.248
▁Harris	-11.248
▁buddies	-11.248
▁citizen	-11.248
▁consequence	-11.248
▁ethnic	-11.248
▁gesture	-11.248
▁phenomen	-11.248
▁smirk	-11.248
Fortunately	-11.248
Piranha	-11.248
SCAR	-11.248
corporate	-11.248
isfortune	-11.248
provoking	-11.248
▁Eventually	-11.248
▁Festival	-11.248
▁Fontaine	-11.248
▁IMDB	-11.248
▁KNOW	-11.248
▁Lambs	-11.248
▁Lampoon	-11.248
▁Lillith	-11.248
▁Louisiana	-11.248
▁Marceau	-11.248
▁Pennsylvania	-11.248
▁Pidgeon	-11.248
▁Pullman	-11.248
▁Springer	-11.248
▁Surveillance	-11.248
▁Swayze	-11.248
▁Wagner	-11.248
▁Washington	-11.248
▁applaud	-11.248
▁atmospheric	-11.248
▁beneath	-11.248
▁contract	-11.248
▁crucial	-11.248
▁embarrassment	-11.248
▁entrance	-11.248
▁evident	-11.248
▁fortunate	-11.248
▁gigantic	-11.248
▁guitar	-11.248
▁hackneyed	-11.248
▁ingredient	-11.248
▁instrument	-11.248
▁kitchen	-11.248
▁knife	-11.248
▁lackluster	-11.248
▁lovable	-11.248
▁mainstream	-11.248
▁monologue	-11.248
▁newspaper	-11.248
▁ourselves	-11.248
▁precious	-11.248
▁profanity	-11.248
▁prominent	-11.248
▁pursuit	-11.248
▁puzzling	-11.248
▁rambling	-11.248
▁relevant	-11.248
▁reminisce	-11.248
▁response	-11.248
▁satisfied	-11.248
▁strung	-11.248
▁sufficient	-11.248
▁suspicion	-11.248
▁terrifying	-11.248
▁tragedy	-11.248
▁universe	-11.248
▁void	-11.248
▁yesterday	-11.248
▁ALERT	-11.248
▁Deuce	-11.248
▁POW	-11.248
▁Venus	-11.248
▁provocative	-11.248
▁rehash	-11.248
▁resume	-11.248
▁sustain	-11.248
▁unleash	-11.248
▁venture	-11.248
▁Cylon	-11.248
▁Street	-11.248
▁measure	-11.248
▁Davis	-11.248
▁eager	-11.248
▁declare	-11.248
▁motorcycle	-11.248
▁pump	-11.248
▁spill	-11.248
▁jaw	-11.248
▁wicked	-11.248
▁Bennet	-11.248
▁Thanksgiving	-11.248
▁choreograph	-11.248
▁loyal	-11.248
▁pitch	-11.248
▁ambitious	-11.248
▁Phillip	-11.248
▁excruciating	-11.248
▁storm	-11.248
▁Eastwood	-11.248
▁Storm	-11.248
▁queen	-11.248
▁pray	-11.248
▁protest	-11.248
▁derive	-11.248
▁smuggl	-11.248
▁blend	-11.248
▁mechani	-11.248
▁Lambert	-11.248
▁funeral	-11.248
▁magazine	-11.248
▁wealth	-11.248
▁impersonat	-11.2481
▁shift	-11.2481
▁Plot	-11.2481
▁composition	-11.2481
▁shines	-11.2481
▁conceived	-11.2481
▁enlist	-11.2481
▁favourite	-11.2481
▁vital	-11.2481
▁saga	-11.2481
▁Clark	-11.2481
▁lyric	-11.2481
Certain	-11.2481
▁backwards	-11.2481
▁employee	-11.2481
▁afterwards	-11.2481
▁leather	-11.2481
▁chief	-11.2481
inducing	-11.2481
▁discount	-11.2481
▁Madsen	-11.2481
▁discern	-11.2481
▁prospect	-11.2481
▁population	-11.2481
▁charismatic	-11.2481
Phase	-11.2481
▁horn	-11.2481
▁Raj	-11.2481
▁$5	-11.2481
▁excessive	-11.2481
▁loving	-11.2481
▁superhero	-11.2481
▁elevator	-11.2482
▁cloud	-11.2482
▁Selma	-11.2482
▁Triangle	-11.2482
▁straightforward	-11.2482
▁Rich	-11.2482
▁Simpson	-11.2482
▁Irish	-11.2482
▁Kind	-11.2482
▁Wolf	-11.2482
▁Zach	-11.2482
▁nuance	-11.2482
▁tramp	-11.2482
▁assistant	-11.2482
▁alter	-11.2482
▁fond	-11.2482
▁yard	-11.2482
▁Turkey	-11.2483
▁existence	-11.2483
▁wrist	-11.2483
▁haircut	-11.2483
uzz	-11.2483
▁Unlike	-11.2483
▁85	-11.2484
▁confession	-11.2484
▁subtlety	-11.2484
▁hunk	-11.2484
▁Jackson	-11.2484
▁jug	-11.2484
▁wave	-11.2484
▁interaction	-11.2484
▁block	-11.2485
▁3000	-11.2485
▁construction	-11.2485
▁Carey	-11.2485
▁slick	-11.2485
▁ballet	-11.2485
▁conventional	-11.2485
▁steel	-11.2485
illian	-11.2486
▁guts	-11.2486
▁Guttenberg	-11.2486
▁shall	-11.2487
▁Rea	-11.2487
Hey	-11.2487
▁shred	-11.2487
▁Str	-11.2487
▁SciFi	-11.2487
▁scarier	-11.2488
▁distraction	-11.2488
ville	-11.2488
▁Chile	-11.2489
▁jet	-11.2489
▁snow	-11.2489
▁Hold	-11.249
▁WOR	-11.249
▁washed	-11.249
▁buri	-11.249
▁noticeable	-11.2491
▁lean	-11.2491
▁fitting	-11.2492
▁Mont	-11.2492
▁tv	-11.2492
▁Lorre	-11.2493
▁questionable	-11.2493
▁vile	-11.2494
▁buff	-11.2494
▁composer	-11.2494
▁firm	-11.2494
▁iron	-11.2494
▁daylight	-11.2495
▁demonic	-11.2497
▁dub	-11.2497
▁Bible	-11.2497
▁Hercules	-11.2497
▁Seaview	-11.2497
▁revolutionary	-11.2497
▁SNL	-11.2497
Short	-11.2497
▁flashes	-11.2497
▁Antoni	-11.2498
▁WH	-11.2498
iallo	-11.25
▁GL	-11.2501
▁dust	-11.2501
▁Gate	-11.2502
▁stray	-11.2502
▁lonely	-11.2504
▁useful	-11.2505
▁2001	-11.2505
sort	-11.2505
▁Shar	-11.2506
▁cue	-11.2506
▁substantial	-11.2507
▁partially	-11.2507
▁Pacific	-11.2508
▁strict	-11.2508
▁enjoyment	-11.2508
▁Typical	-11.2508
▁Sever	-11.2508
▁weakest	-11.251
Sean	-11.2511
▁everyday	-11.2512
▁suitabl	-11.2513
▁Opera	-11.2513
▁Heck	-11.2513
▁Kel	-11.2516
▁bashing	-11.2516
▁gather	-11.2518
Last	-11.2519
▁dubbed	-11.2519
▁Probably	-11.2522
▁dresses	-11.2522
▁hall	-11.2523
▁pad	-11.2525
▁assault	-11.2526
▁proof	-11.2526
▁cheapest	-11.2528
▁OUT	-11.253
▁coat	-11.2533
▁butcher	-11.2533
▁dire	-11.2536
▁mill	-11.2536
▁Mall	-11.2537
▁Eden	-11.2539
state	-11.2539
▁Curse	-11.2541
▁blast	-11.2545
▁wow	-11.2551
▁Bottom	-11.2552
▁=	-11.2552
▁Call	-11.2552
▁witnessed	-11.2557
▁lik	-11.2562
▁stake	-11.2563
▁Honestly	-11.2563
cial	-11.2564
▁entertained	-11.2565
▁CD	-11.2567
▁apt	-11.2567
▁Lor	-11.257
▁starters	-11.257
▁marginal	-11.2572
▁Roy	-11.2572
▁recreat	-11.2572
▁Ward	-11.2574
▁repeated	-11.2575
▁closeup	-11.2575
▁bob	-11.2576
?????	-11.2579
▁robb	-11.2588
▁crav	-11.2594
itting	-11.2598
▁belly	-11.2598
▁Stu	-11.2602
▁bound	-11.2605
▁staged	-11.2614
▁List	-11.2617
plications	-11.2623
▁bay	-11.2627
▁randomly	-11.2628
▁returning	-11.2632
▁Eva	-11.2635
▁cleaning	-11.2636
▁repeating	-11.2637
▁blowing	-11.2637
▁claimed	-11.2643
▁losers	-11.2646
▁eater	-11.2648
▁growing	-11.2649
survivor	-11.2658
▁$1	-11.2662
▁positively	-11.2667
▁ok	-11.2668
▁Lou	-11.2677
▁camping	-11.2679
▁workers	-11.2683
▁heap	-11.2691
give	-11.2703
▁site	-11.2711
▁pan	-11.2713
▁conversations	-11.2716
▁touching	-11.2717
yet	-11.2718
▁hungr	-11.2718
▁shy	-11.2728
Buck	-11.2739
▁lad	-11.2744
Mad	-11.2746
▁card	-11.2746
▁Amazons	-11.2752
understood	-11.2754
makers	-11.2761
vie	-11.2771
▁curse	-11.2774
▁pann	-11.2779
astic	-11.2785
▁noir	-11.279
▁Chris	-11.279
TRA	-11.2793
▁hunters	-11.2795
fall	-11.2801
▁AT	-11.2801
▁2:	-11.2802
▁Far	-11.2825
olf	-11.2834
▁forgiving	-11.285
$	-11.2851
▁spa	-11.2855
utter	-11.2861
▁mountains	-11.2863
▁operate	-11.2868
new	-11.2882
▁checked	-11.2886
▁posted	-11.2896
▁screenwriters	-11.2901
thirsty	-11.2906
▁Qui	-11.2915
▁users	-11.2918
▁Mal	-11.2932
▁Sheen	-11.2938
▁loads	-11.2941
▁TH	-11.2947
inister	-11.2953
▁Tro	-11.2978
▁reporters	-11.2984
ima	-11.2989
Abo	-11.3005
▁shadows	-11.3013
▁differently	-11.3026
wit	-11.3031
▁AN	-11.3044
▁tracks	-11.3051
▁movements	-11.3051
▁packag	-11.3062
▁encounters	-11.3074
▁$3	-11.3083
▁edit	-11.3114
minded	-11.3163
▁Ji	-11.3175
▁mature	-11.3177
posing	-11.318
▁HO	-11.3199
▁doll	-11.3199
▁Hal	-11.3211
UST	-11.3213
▁Boa	-11.3217
rake	-11.3219
▁plann	-11.3228
anti	-11.3255
verse	-11.3259
▁San	-11.3284
lmost	-11.3302
▁imper	-11.3307
ipped	-11.3337
ASS	-11.3358
ama	-11.3366
Yanc	-11.3388
▁Dep	-11.3395
Rating	-11.3397
agged	-11.3399
je	-11.3402
paced	-11.3414
mouthed	-11.3434
hole	-11.3438
▁Tea	-11.3461
Sp	-11.3467
▁wo	-11.3485
numbers	-11.3505
hip	-11.3533
▁torch	-11.358
▁Alic	-11.3592
▁Uni	-11.3597
relatively	-11.3602
while	-11.3607
stood	-11.3607
enne	-11.3608
rmed	-11.3625
▁200	-11.3627
upp	-11.3629
cross	-11.3629
▁conversation	-11.3644
▁mile	-11.365
▁sitcom	-11.3653
▁goat	-11.3656
ccording	-11.3692
▁$10	-11.3706
▁sur	-11.3707
▁(198	-11.3712
▁sale	-11.372
title	-11.372
▁Blood	-11.3728
▁Demon	-11.3743
▁spott	-11.3756
ologist	-11.3766
berg	-11.3777
▁overact	-11.3778
▁south	-11.3788
▁shirt	-11.3791
ju	-11.3798
▁Monk	-11.3801
▁Julia	-11.3819
▁Lau	-11.382
posed	-11.3823
▁Fan	-11.3824
=	-11.3826
Bottom	-11.3826
original	-11.3827
place	-11.3828
Demon	-11.3828
shadow	-11.3829
count	-11.383
William	-11.383
Director	-11.383
field	-11.3831
print	-11.3831
Most	-11.3831
Master	-11.3831
white	-11.3831
DVD	-11.3831
Nothing	-11.3832
▁elaborate	-11.3833
master	-11.3834
half	-11.3836
tail	-11.3837
loud	-11.3837
Every	-11.3837
▁react	-11.3838
demon	-11.3839
Bill	-11.384
Gian	-11.3842
▁cloth	-11.3842
directed	-11.3851
crew	-11.3853
▁flop	-11.3853
▁cook	-11.3856
▁engine	-11.3859
▁bow	-11.3861
▁Mom	-11.3863
order	-11.3864
type	-11.3865
hour	-11.3866
▁distinct	-11.3871
▁rush	-11.3872
▁trail	-11.3881
▁tire	-11.3884
pop	-11.3885
ector	-11.3886
▁Jess	-11.3888
▁unnecessar	-11.3889
▁concentrate	-11.389
▁challenge	-11.3893
▁abduct	-11.3899
▁prince	-11.3902
▁posse	-11.3902
▁confront	-11.3905
▁comfort	-11.3906
▁authentic	-11.3906
▁complex	-11.3906
▁service	-11.3906
▁locat	-11.3906
▁Laugh	-11.3907
etective	-11.3908
▁wanna	-11.3908
eval	-11.3908
quot	-11.3908
▁elect	-11.3908
matic	-11.3908
▁pun	-11.3909
absorb	-11.3909
Admittedly	-11.3909
Cleopatra	-11.3909
Seymour	-11.3909
[	-11.3909
distinguish	-11.3909
▁BORING	-11.3909
▁Britain	-11.3909
▁Brooklyn	-11.3909
▁Catherine	-11.3909
▁Central	-11.3909
▁Chicago	-11.3909
▁Complete	-11.3909
▁Connor	-11.3909
▁Craig	-11.3909
▁Dallesandro	-11.3909
▁Example	-11.3909
▁Fonda	-11.3909
▁Franco	-11.3909
▁Iraq	-11.3909
▁Lloyd	-11.3909
▁Mitchell	-11.3909
▁Oklahoma	-11.3909
▁Philip	-11.3909
▁Puppet	-11.3909
▁Python	-11.3909
▁Raymond	-11.3909
▁SFX	-11.3909
▁STILL	-11.3909
▁Scarlet	-11.3909
▁Shakespeare	-11.3909
▁Sherawat	-11.3909
▁Stupid	-11.3909
▁Thalluri	-11.3909
▁Varney	-11.3909
▁Warhol	-11.3909
▁arguing	-11.3909
▁artificial	-11.3909
▁athletic	-11.3909
▁autobiography	-11.3909
▁babies	-11.3909
▁clunky	-11.3909
▁completists	-11.3909
▁conclude	-11.3909
▁dedicate	-11.3909
▁eliminat	-11.3909
▁elusive	-11.3909
▁frantic	-11.3909
▁global	-11.3909
▁immense	-11.3909
▁inaccurate	-11.3909
▁incorrect	-11.3909
▁increasing	-11.3909
▁infected	-11.3909
▁jewel	-11.3909
▁landscape	-11.3909
▁library	-11.3909
▁machinations	-11.3909
▁miraculous	-11.3909
▁murky	-11.3909
▁nauseating	-11.3909
▁nonsensical	-11.3909
▁ocean	-11.3909
▁ominous	-11.3909
▁parallel	-11.3909
▁predecessor	-11.3909
▁rabbit	-11.3909
▁radioactive	-11.3909
▁sensational	-11.3909
▁simultaneously	-11.3909
▁skeptic	-11.3909
▁squeeze	-11.3909
▁striking	-11.3909
▁supermarket	-11.3909
▁travesty	-11.3909
▁unimaginative	-11.3909
▁unpleasant	-11.3909
▁unrecognizable	-11.3909
▁unsuspecting	-11.3909
]	-11.3909
▁1982	-11.3909
▁Afghanistan	-11.3909
▁Griswold	-11.3909
▁Rohmer	-11.3909
▁Spiderman	-11.3909
▁antagonist	-11.3909
▁argument	-11.3909
▁behaviour	-11.3909
▁chimp	-11.3909
▁client	-11.3909
▁drab	-11.3909
▁dreary	-11.3909
▁expense	-11.3909
▁obtain	-11.3909
▁occup	-11.3909
▁organization	-11.3909
▁redemption	-11.3909
▁sarcastic	-11.3909
▁translation	-11.3909
▁tribute	-11.3909
▁warehouse	-11.3909
▁Conway	-11.3909
▁Egypt	-11.3909
▁Toulon	-11.3909
▁mysteries	-11.3909
▁patience	-11.3909
▁smack	-11.3909
▁smell	-11.3909
▁valid	-11.3909
▁/>1/10	-11.3909
▁Business	-11.3909
▁scandal	-11.3909
eographic	-11.3909
▁countries	-11.3909
▁greet	-11.3909
keeper	-11.3909
▁Susan	-11.3909
▁extend	-11.3909
▁option	-11.3909
▁prompt	-11.3909
▁Talk	-11.3909
▁casual	-11.3909
▁ensure	-11.3909
▁rotten	-11.3909
Roseanne	-11.3909
▁feast	-11.3909
▁waist	-11.3909
▁Airplane	-11.3909
▁lookalike	-11.3909
▁nevertheless	-11.3909
▁cultural	-11.3909
▁documentaries	-11.3909
▁Video	-11.3909
▁detract	-11.3909
▁Tunny	-11.3909
▁Help	-11.3909
▁Therefore	-11.3909
▁Besides	-11.3909
▁cheesie	-11.3909
▁Boorman	-11.3909
▁woeful	-11.3909
▁gear	-11.3909
Friend	-11.3909
▁Production	-11.3909
▁Katt	-11.3909
▁comedic	-11.3909
▁command	-11.3909
▁biopic	-11.3909
Cheaters	-11.3909
▁LAME	-11.3909
▁stoned	-11.3909
▁expensive	-11.3909
▁kidnapped	-11.3909
UUU	-11.3909
▁Kurt	-11.3909
▁yawn	-11.3909
▁financial	-11.3909
▁Undead	-11.3909
▁ambition	-11.3909
▁exploitative	-11.3909
▁Depression	-11.3909
▁neighborhood	-11.3909
▁drown	-11.3909
▁overdone	-11.3909
▁vengeance	-11.3909
▁scatter	-11.3909
▁worms	-11.3909
▁Aunt	-11.391
▁Finney	-11.391
▁NOTHING	-11.391
▁Western	-11.391
▁Tyler	-11.391
hhh	-11.391
▁Crane	-11.391
▁Extra	-11.391
▁snail	-11.391
▁1990	-11.391
▁sincerely	-11.391
▁airplane	-11.391
▁desk	-11.391
▁2004	-11.391
▁destruction	-11.391
▁proceedings	-11.391
wacky	-11.391
▁navy	-11.391
▁captor	-11.391
▁thou	-11.391
▁Everybody	-11.391
▁whiny	-11.391
▁alcoholic	-11.391
▁kiddie	-11.391
▁unnatural	-11.391
▁Definitely	-11.3911
▁medium	-11.3911
▁distribution	-11.3911
▁Under	-11.3911
▁identity	-11.3911
▁continuous	-11.3911
▁Duke	-11.3911
Spider	-11.3911
▁hammy	-11.3911
▁Barred	-11.3911
▁progressive	-11.3911
▁torment	-11.3911
▁punchline	-11.3911
▁indication	-11.3911
▁cookie	-11.3912
▁spaceship	-11.3912
▁rack	-11.3912
▁cruelty	-11.3912
▁customers	-11.3912
▁showcas	-11.3912
Albert	-11.3912
▁lips	-11.3912
uncle	-11.3912
▁principal	-11.3912
gray	-11.3913
▁Terror	-11.3913
▁trade	-11.3913
▁Hank	-11.3913
▁selection	-11.3913
▁secretary	-11.3913
▁plate	-11.3913
▁stunk	-11.3913
characterisation	-11.3913
▁assign	-11.3913
▁Trent	-11.3913
▁meaningful	-11.3913
▁bubbles	-11.3913
▁bump	-11.3913
▁progression	-11.3914
▁reload	-11.3914
▁reek	-11.3914
▁inmates	-11.3914
▁pound	-11.3914
▁Model	-11.3914
▁contribution	-11.3914
▁strain	-11.3914
▁poop	-11.3914
▁shade	-11.3914
▁flam	-11.3915
▁letdown	-11.3915
Les	-11.3915
▁cents	-11.3915
▁Somehow	-11.3915
▁favour	-11.3915
ALF	-11.3915
▁undead	-11.3915
▁complicated	-11.3916
▁formulaic	-11.3916
▁glow	-11.3916
▁Cheng	-11.3916
▁Possibl	-11.3916
gender	-11.3916
▁Twi	-11.3917
▁Vivi	-11.3917
▁rave	-11.3918
▁Josh	-11.3918
▁clone	-11.3918
▁fx	-11.3919
▁rocket	-11.3919
▁clueless	-11.3919
▁batter	-11.3919
▁inconsistencies	-11.3919
▁Must	-11.3919
▁threaten	-11.3919
▁Kong	-11.392
▁slice	-11.392
▁avenge	-11.392
▁disturbed	-11.3921
▁madness	-11.3921
▁bait	-11.3921
coherent	-11.3921
achel	-11.3922
▁scifi	-11.3923
▁tasteless	-11.3923
▁shameless	-11.3923
▁scant	-11.3924
▁bang	-11.3924
▁Heuring	-11.3924
▁lifestyle	-11.3924
▁Lizzy	-11.3924
▁atrocity	-11.3924
▁Aga	-11.3925
▁Lance	-11.3925
▁Fight	-11.3925
▁WW	-11.3925
▁spout	-11.3926
▁Tell	-11.3926
far	-11.3927
▁smoking	-11.3928
mins	-11.3928
▁neglected	-11.3928
▁sophisticated	-11.3928
▁Forsyth	-11.3928
▁Batman	-11.3928
▁Rememb	-11.3929
▁mistress	-11.3929
▁childish	-11.3929
▁Think	-11.3929
▁vast	-11.3929
▁crush	-11.393
▁nearby	-11.3931
ulous	-11.3931
▁Goth	-11.3932
▁Sound	-11.3933
▁admirer	-11.3933
▁rout	-11.3934
▁engaged	-11.3934
xton	-11.3935
▁active	-11.3936
▁biased	-11.3936
▁Rule	-11.3936
▁hyper	-11.3938
▁comparable	-11.3939
incestuous	-11.394
▁BUT	-11.3941
▁Heaven	-11.3941
▁carefully	-11.3942
▁tall	-11.3942
▁map	-11.3943
▁attended	-11.3944
ctivities	-11.3944
▁Louis	-11.3945
▁Kenne	-11.3945
Tiny	-11.3946
▁escap	-11.3946
▁21	-11.3948
▁indie	-11.395
▁photographer	-11.395
▁challenged	-11.395
▁repeatedly	-11.3951
▁surf	-11.3951
▁classes	-11.3952
▁tenant	-11.3953
▁Dean	-11.3953
▁quarters	-11.3954
▁expert	-11.3954
▁Rutge	-11.3955
▁corner	-11.3955
▁/>2.	-11.3955
▁preachy	-11.3956
▁improvise	-11.3956
▁tender	-11.3956
▁conveniently	-11.3956
▁nail	-11.3956
▁Battle	-11.3957
▁ranger	-11.3957
▁knee	-11.3958
▁engineer	-11.396
▁hysterically	-11.3962
▁weight	-11.3963
▁*****	-11.3963
▁Rider	-11.3964
▁Sex	-11.3965
▁Doug	-11.397
▁flopp	-11.3971
sult	-11.3973
▁recommendation	-11.3974
DO	-11.3974
▁lamest	-11.3976
▁Tora	-11.3978
▁trop	-11.3979
lew	-11.398
▁/>3.	-11.3981
▁understandable	-11.3983
▁bowl	-11.3985
lf	-11.3986
▁national	-11.3986
▁Gay	-11.3987
▁alas	-11.3997
idel	-11.4004
▁trace	-11.4004
visible	-11.4005
▁Elephant	-11.4005
▁shameful	-11.4006
▁bio	-11.4008
▁heroic	-11.4008
▁Set	-11.4009
▁technically	-11.4009
▁stranger	-11.401
▁parties	-11.401
▁tricked	-11.4014
▁errors	-11.4014
▁occasions	-11.4014
▁baddies	-11.4015
▁arrested	-11.4021
▁Ten	-11.4022
▁succeeded	-11.4022
▁invisible	-11.4023
cott	-11.4025
Among	-11.4025
▁ku	-11.4028
▁barn	-11.403
▁someday	-11.4035
▁artsy	-11.4037
▁contained	-11.4041
▁demanding	-11.4043
▁pink	-11.4044
28	-11.405
▁appreciated	-11.405
▁upside	-11.4052
▁Surely	-11.4052
▁marketing	-11.4053
▁PR	-11.4054
▁thugs	-11.4056
▁morons	-11.4056
▁modeling	-11.4068
▁briefly	-11.4081
▁convincingly	-11.4081
▁slaves	-11.4085
▁coll	-11.4088
comprehensible	-11.409
▁ON	-11.4092
▁owe	-11.4095
▁blurr	-11.4095
▁fir	-11.4096
▁remained	-11.4098
▁Brothers	-11.4098
▁ensues	-11.4098
▁hugg	-11.4105
really	-11.4107
▁prey	-11.4114
▁plotting	-11.4123
lph	-11.4125
▁GI	-11.4125
▁accus	-11.4128
▁importantly	-11.4149
albe	-11.4153
▁tips	-11.4155
▁paced	-11.4156
▁lesser	-11.4157
▁SA	-11.4159
▁lac	-11.416
▁meat	-11.4164
▁burning	-11.4168
▁indicates	-11.4172
rches	-11.4173
▁similarly	-11.4178
▁suggested	-11.4188
▁shopp	-11.4189
▁alternat	-11.4197
▁info	-11.4221
eighties	-11.4225
▁spinn	-11.425
Freak	-11.4256
derate	-11.4296
▁Pan	-11.4303
▁filler	-11.432
▁completed	-11.434
▁heist	-11.4354
nette	-11.4368
▁goodness	-11.437
▁Por	-11.4375
▁despise	-11.4375
▁WAS	-11.4388
▁indicate	-11.4403
▁myth	-11.4414
▁camper	-11.4415
voca	-11.4419
ncer	-11.4436
▁terrorize	-11.4443
▁Air	-11.4448
▁Lep	-11.4471
Team	-11.4475
addy	-11.4479
▁Lauren	-11.448
12	-11.4512
▁tip	-11.4531
▁Col	-11.4549
NO	-11.4566
ummy	-11.4571
▁defin	-11.4571
▁pushe	-11.4588
▁legal	-11.459
▁kn	-11.4596
fun	-11.4604
ipping	-11.4619
standing	-11.4637
erial	-11.4658
ital	-11.467
Cool	-11.4674
Go	-11.4685
▁(!)	-11.4702
▁Wors	-11.4722
city	-11.4726
▁indicat	-11.4732
aka	-11.4737
full	-11.4747
▁slum	-11.4793
EL	-11.4797
▁Mor	-11.4812
collector	-11.4839
hone	-11.4842
▁achiev	-11.4858
▁define	-11.4869
headed	-11.4878
▁tan	-11.4892
▁Make	-11.4903
ombs	-11.4907
▁shake	-11.4932
▁mal	-11.4938
▁tap	-11.4954
▁Miche	-11.4958
▁mach	-11.4959
evo	-11.496
Wi	-11.4964
▁Jon	-11.4979
into	-11.5
etc	-11.5023
wee	-11.5024
▁STO	-11.5028
▁format	-11.5032
▁bru	-11.5036
▁stra	-11.504
▁stretche	-11.5095
▁Tan	-11.5102
dressed	-11.5102
GM	-11.5136
▁villa	-11.5144
▁exc	-11.516
0,000	-11.5165
▁Laur	-11.5187
▁fist	-11.5194
▁MU	-11.521
▁misse	-11.5212
▁Fu	-11.5243
▁realiz	-11.5261
▁simpl	-11.5268
ku	-11.5276
▁bou	-11.5277
hearted	-11.5311
▁motive	-11.5314
▁gradua	-11.5319
▁month	-11.532
▁subplot	-11.5321
zer	-11.5328
▁Kar	-11.5333
98	-11.5339
▁capital	-11.5365
dropping	-11.5371
▁flu	-11.538
une	-11.5386
▁emerge	-11.5399
▁Mig	-11.5399
▁Roa	-11.5414
▁thoughtful	-11.5416
Eas	-11.542
▁Bas	-11.5436
herent	-11.5437
▁fac	-11.5445
mind	-11.545
▁kidnap	-11.5467
▁(196	-11.5474
rash	-11.5478
write	-11.548
cult	-11.5481
crap	-11.5484
Karmen	-11.5491
national	-11.5493
Curse	-11.5493
present	-11.5494
Bloodline	-11.5495
Believ	-11.5496
wife	-11.5496
Acting	-11.5496
High	-11.5496
House	-11.5496
Yeah	-11.5496
Bruce	-11.5496
Sadly	-11.5497
People	-11.5497
front	-11.5497
fiction	-11.5497
Randy	-11.5497
unfortunately	-11.5497
political	-11.5498
David	-11.5498
please	-11.5498
While	-11.5498
Movie	-11.5498
zombie	-11.5498
everything	-11.5498
Kath	-11.5498
camera	-11.5498
maybe	-11.5498
stupid	-11.5498
true	-11.5498
why	-11.5498
shoot	-11.5498
poor	-11.5498
▁chopp	-11.5499
typical	-11.55
credit	-11.55
Bull	-11.5504
cool	-11.5506
▁fog	-11.5506
▁bull	-11.5507
wide	-11.5508
capabl	-11.551
▁parad	-11.5511
ograph	-11.5513
▁satisfy	-11.5517
wow	-11.5517
Get	-11.5518
End	-11.5519
plane	-11.552
▁tur	-11.5524
ranged	-11.5525
bear	-11.5526
since	-11.5529
both	-11.553
hair	-11.553
▁flip	-11.5531
Other	-11.5534
think	-11.5535
ushed	-11.5537
evil	-11.5542
about	-11.5545
word	-11.5545
▁philosoph	-11.5546
bag	-11.5546
▁engage	-11.5547
▁combat	-11.5547
pot	-11.5548
ROM	-11.5554
▁Barb	-11.5556
▁spoke	-11.5557
loved	-11.5558
▁padd	-11.5558
▁cock	-11.5562
aud	-11.5562
▁studi	-11.5564
logue	-11.5565
killer	-11.5565
Sure	-11.5567
▁Hunt	-11.5568
▁custom	-11.5572
▁obligat	-11.5572
▁differ	-11.5574
lasher	-11.5574
▁charisma	-11.5574
▁proceed	-11.5574
resumably	-11.5574
▁excess	-11.5574
▁psycholog	-11.5574
clusion	-11.5575
▁partial	-11.5575
▁(199	-11.5575
▁Wallace	-11.5575
▁banjo	-11.5575
▁bikini	-11.5575
▁exhibit	-11.5575
▁masquerad	-11.5575
▁respond	-11.5575
Hamilton	-11.5575
accuracy	-11.5575
imaginary	-11.5575
indulgence	-11.5575
paranormal	-11.5575
temporarily	-11.5575
volution	-11.5575
▁1972	-11.5575
▁9/11	-11.5575
▁Arnie	-11.5575
▁Arquette	-11.5575
▁Avenger	-11.5575
▁Boreanaz	-11.5575
▁Boxleitner	-11.5575
▁Bulgaria	-11.5575
▁Chauvelin	-11.5575
▁Church	-11.5575
▁Delicatessen	-11.5575
▁Doctor	-11.5575
▁Gossett	-11.5575
▁Gregg	-11.5575
▁Gregory	-11.5575
▁Griffith	-11.5575
▁HORRIBLE	-11.5575
▁Haymes	-11.5575
▁Inferno	-11.5575
▁Isobel	-11.5575
▁Jaclyn	-11.5575
▁KISS	-11.5575
▁Katona	-11.5575
▁Lecter	-11.5575
▁Marshall	-11.5575
▁Mexico	-11.5575
▁NYC	-11.5575
▁Pearce	-11.5575
▁Project	-11.5575
▁Renoir	-11.5575
▁Samurai	-11.5575
▁Snafu	-11.5575
▁Stallone	-11.5575
▁Throughout	-11.5575
▁Viggo	-11.5575
▁Voight	-11.5575
▁WOW	-11.5575
▁Watson	-11.5575
▁Wilkinson	-11.5575
▁access	-11.5575
▁album	-11.5575
▁arrival	-11.5575
▁bastard	-11.5575
▁blunt	-11.5575
▁cemetery	-11.5575
▁companion	-11.5575
▁condemn	-11.5575
▁controversy	-11.5575
▁convoluted	-11.5575
▁corporation	-11.5575
▁devour	-11.5575
▁dispatch	-11.5575
▁dysfunction	-11.5575
▁eccentric	-11.5575
▁efficient	-11.5575
▁endearing	-11.5575
▁equipment	-11.5575
▁eternity	-11.5575
▁extensive	-11.5575
▁fuzzy	-11.5575
▁giggling	-11.5575
▁grasp	-11.5575
▁grotesque	-11.5575
▁haphazard	-11.5575
▁happily	-11.5575
▁hustler	-11.5575
▁inaccuracies	-11.5575
▁inclined	-11.5575
▁incompetent	-11.5575
▁industrial	-11.5575
▁inevitabl	-11.5575
▁insipid	-11.5575
▁jarring	-11.5575
▁landlord	-11.5575
▁libert	-11.5575
▁magnificent	-11.5575
▁manipulat	-11.5575
▁masochistic	-11.5575
▁meltdown	-11.5575
▁memories	-11.5575
▁monotonous	-11.5575
▁museum	-11.5575
▁mutant	-11.5575
▁nominated	-11.5575
▁patrioti	-11.5575
▁paycheck	-11.5575
▁pedestrian	-11.5575
▁phony	-11.5575
▁popcorn	-11.5575
▁preposterous	-11.5575
▁puke	-11.5575
▁recruit	-11.5575
▁refreshing	-11.5575
▁repulsive	-11.5575
▁resolution	-11.5575
▁restaurant	-11.5575
▁rudimentary	-11.5575
▁seduce	-11.5575
▁smiling	-11.5575
▁solution	-11.5575
▁species	-11.5575
▁stimulate	-11.5575
▁syrup	-11.5575
▁territory	-11.5575
▁tremendous	-11.5575
▁unappealing	-11.5575
▁underneath	-11.5575
▁unhappy	-11.5575
▁unintelligible	-11.5575
▁vapid	-11.5575
▁warrant	-11.5575
▁wretch	-11.5575
Beautiful	-11.5575
rchitect	-11.5575
▁Clearly	-11.5575
▁Darkhunters	-11.5575
▁Darshan	-11.5575
▁Harper	-11.5575
▁MAGOO	-11.5575
▁NASA	-11.5575
▁Paré	-11.5575
▁Summer	-11.5575
▁Twain	-11.5575
▁coffin	-11.5575
▁crazi	-11.5575
▁devastat	-11.5575
▁dreck	-11.5575
▁epitom	-11.5575
▁gardener	-11.5575
▁gentle	-11.5575
▁holier	-11.5575
▁insurance	-11.5575
▁minimum	-11.5575
▁premiere	-11.5575
▁river	-11.5575
▁undercover	-11.5575
Dracula	-11.5575
Studios	-11.5575
▁Flash	-11.5575
▁Jacob	-11.5575
▁Rubin	-11.5575
▁deceive	-11.5575
▁polite	-11.5575
▁pulp	-11.5575
▁spider	-11.5575
▁supply	-11.5575
▁wipe	-11.5575
ARK	-11.5575
celebrate	-11.5575
▁/>2/10	-11.5575
▁Hugh	-11.5575
▁Norton	-11.5575
▁admittedly	-11.5575
▁commentator	-11.5575
▁implied	-11.5575
▁uniform	-11.5575
OTHER	-11.5575
▁Action	-11.5575
▁Simon	-11.5575
▁brown	-11.5575
▁comparing	-11.5575
▁deaf	-11.5575
▁dentist	-11.5575
▁illustr	-11.5575
▁Train	-11.5575
▁overbearing	-11.5575
▁rappers	-11.5575
-16	-11.5575
▁flashlights	-11.5575
▁groan	-11.5575
▁mercenar	-11.5575
▁Moretz	-11.5575
▁wedding	-11.5575
▁egg	-11.5575
▁faint	-11.5575
Virgin	-11.5576
▁Sense	-11.5576
▁Spelling	-11.5576
▁compensat	-11.5576
▁Salva	-11.5576
▁oblivion	-11.5576
Usually	-11.5576
▁Reshamiya	-11.5576
▁Jews	-11.5576
▁comedian	-11.5576
▁eyebrow	-11.5576
▁undeserv	-11.5576
▁Weill	-11.5576
▁mugg	-11.5576
▁parrot	-11.5576
▁Betty	-11.5576
illusion	-11.5576
▁Fear	-11.5576
▁Glen	-11.5576
▁Wait	-11.5576
▁Barnes	-11.5576
▁Miguel	-11.5576
▁Baby	-11.5576
▁Glori	-11.5576
▁cryptozoologist	-11.5576
▁undermine	-11.5576
▁EVERYTHING	-11.5576
▁coincidence	-11.5576
▁enhanc	-11.5576
▁octopus	-11.5576
▁Avalon	-11.5576
▁interrupt	-11.5576
▁dinos	-11.5576
▁ditch	-11.5576
▁advertise	-11.5576
▁predator	-11.5576
▁definition	-11.5576
▁tease	-11.5576
shaft	-11.5576
ispanic	-11.5576
▁graveyard	-11.5576
▁Series	-11.5576
▁apologize	-11.5576
▁appreciation	-11.5576
▁bloated	-11.5576
▁rapture	-11.5576
▁idol	-11.5576
lackwater	-11.5576
▁cenobites	-11.5576
▁holiday	-11.5576
▁Johnston	-11.5576
▁infantile	-11.5576
▁Conf	-11.5576
▁feather	-11.5576
▁tiresome	-11.5576
Claud	-11.5576
▁Farina	-11.5576
▁demonstrate	-11.5576
▁applie	-11.5576
▁Funny	-11.5576
▁savage	-11.5576
▁trend	-11.5576
▁Fabian	-11.5576
▁legitima	-11.5576
▁strand	-11.5576
▁2005	-11.5577
▁Mills	-11.5577
▁substandard	-11.5577
mpire	-11.5577
▁sublim	-11.5577
▁infant	-11.5577
▁Blake	-11.5577
▁Krist	-11.5577
▁vocal	-11.5577
▁HATE	-11.5577
▁fulfill	-11.5577
▁romp	-11.5577
▁annoyance	-11.5577
▁dump	-11.5577
plicit	-11.5578
▁Molly	-11.5578
▁Hood	-11.5578
▁innocence	-11.5578
▁plausible	-11.5578
frog	-11.5578
▁angst	-11.5578
▁addiction	-11.5578
▁fanatic	-11.5578
▁insightful	-11.5578
▁dung	-11.5578
▁notorious	-11.5578
▁spring	-11.5578
▁Showtime	-11.5578
▁Renar	-11.5578
▁snuff	-11.5579
▁jury	-11.5579
▁occurred	-11.5579
▁coast	-11.5579
▁Golan	-11.5579
▁weekend	-11.5579
▁Spoilers	-11.5579
▁similarities	-11.5579
▁crook	-11.5579
▁Alison	-11.5579
▁Rome	-11.5579
▁comfortable	-11.5579
▁magician	-11.5579
▁roam	-11.5579
unior	-11.5579
▁ninety	-11.558
▁subtly	-11.558
▁rewrite	-11.558
▁possesses	-11.558
▁gaps	-11.558
▁click	-11.558
▁salad	-11.558
▁vary	-11.558
▁collar	-11.558
▁coach	-11.558
▁tame	-11.558
▁candle	-11.5581
▁disconnected	-11.5581
▁safety	-11.5581
▁confrontation	-11.5581
▁objective	-11.5581
▁subtitles	-11.5581
▁fluff	-11.5581
▁distributor	-11.5581
▁boob	-11.5581
urban	-11.5582
forbidden	-11.5582
▁homosexuality	-11.5582
ribb	-11.5582
▁Miles	-11.5582
▁Mind	-11.5582
▁ELE	-11.5583
faced	-11.5583
▁bread	-11.5583
▁Sara	-11.5583
ternal	-11.5583
▁friendship	-11.5583
▁flames	-11.5583
▁maid	-11.5583
immer	-11.5584
▁max	-11.5584
▁Homer	-11.5584
▁hail	-11.5584
▁Code	-11.5584
▁neat	-11.5584
▁punk	-11.5584
▁insert	-11.5584
▁booth	-11.5584
▁oil	-11.5585
▁Bollywood	-11.5585
▁FLY	-11.5585
gay	-11.5585
▁AWAY	-11.5585
LIC	-11.5586
▁Temp	-11.5586
▁MTV	-11.5586
▁Starling	-11.5586
▁competent	-11.5587
▁Jake	-11.5587
▁obes	-11.5587
▁unlikeable	-11.5588
rwin	-11.5588
▁embr	-11.5588
▁State	-11.5588
▁aimless	-11.5588
▁Luck	-11.5588
ronic	-11.5589
▁Dix	-11.5589
▁bible	-11.5589
▁secondary	-11.5589
YING	-11.5589
▁Might	-11.5589
▁/>3)	-11.5589
▁Zone	-11.5589
▁cub	-11.5589
▁witnesses	-11.559
▁emo	-11.559
▁restroom	-11.559
▁shortcoming	-11.5591
▁Peep	-11.5591
▁unreal	-11.5591
▁distance	-11.5591
▁Sort	-11.5592
▁Camp	-11.5592
▁Alex	-11.5592
▁dating	-11.5592
ghett	-11.5592
▁demeaning	-11.5593
ounce	-11.5593
▁uncut	-11.5593
▁chore	-11.5594
▁linger	-11.5595
****	-11.5595
literature	-11.5595
▁urina	-11.5595
Morris	-11.5596
▁Adama	-11.5596
▁Lives	-11.5597
Globus	-11.5597
▁ranch	-11.5598
▁clima	-11.5598
▁cargo	-11.5599
corp	-11.5599
▁Hollow	-11.5599
▁Major	-11.5599
▁PLEASE	-11.5599
▁Personally	-11.5599
▁Rebecca	-11.5599
▁WHAT	-11.5599
▁intensity	-11.5599
▁Needless	-11.5599
▁Class	-11.5599
▁resolved	-11.56
▁Angeles	-11.5601
▁bloodline	-11.5601
▁Scream	-11.5602
▁Jesse	-11.5602
spawn	-11.5603
▁Christianity	-11.5603
▁weather	-11.5604
tories	-11.5605
▁philosophy	-11.5605
▁torn	-11.5606
▁overwhelming	-11.5606
▁Dill	-11.5606
▁Book	-11.5606
▁Worse	-11.5607
▁caper	-11.5607
▁curve	-11.5609
▁OH	-11.561
▁fee	-11.561
▁Neal	-11.5611
▁GO	-11.5611
▁armor	-11.5612
▁Beverl	-11.5612
▁touches	-11.5612
gore	-11.5612
▁explore	-11.5613
▁Dear	-11.5613
▁crashes	-11.5614
▁talentless	-11.5614
▁Cross	-11.5614
▁Ryan	-11.5614
▁CSI	-11.5614
▁chem	-11.5614
▁claw	-11.5615
▁dodg	-11.5615
▁Tad	-11.5616
iously	-11.5618
▁overrated	-11.5618
▁delightful	-11.5619
▁presentation	-11.562
XX	-11.5621
▁HR	-11.5621
▁Try	-11.5621
Gues	-11.5622
▁Put	-11.5622
ERA	-11.5623
▁confiden	-11.5623
▁apocalyp	-11.5624
▁square	-11.5625
1989	-11.5626
▁Anna	-11.5626
DY	-11.5626
▁Carla	-11.5627
▁stark	-11.563
▁Him	-11.5632
▁split	-11.5632
▁received	-11.5633
▁Didn	-11.5634
▁Dien	-11.5636
▁beware	-11.5637
Lor	-11.5637
▁wore	-11.5638
▁needless	-11.5641
▁Pick	-11.5641
▁Exe	-11.5642
▁finishes	-11.5643
▁offens	-11.5643
▁planned	-11.5645
▁Superhero	-11.5645
▁Tere	-11.5645
▁butchered	-11.5645
▁Lisa	-11.5646
▁Nu	-11.5647
▁clothing	-11.5647
▁dud	-11.5649
▁Station	-11.565
fast	-11.5654
▁Gore	-11.5657
▁chilling	-11.5659
mmer	-11.5661
▁Karmen	-11.5661
▁Lone	-11.5676
enzie	-11.5678
▁stalking	-11.5679
▁flashy	-11.568
org	-11.5691
▁scarie	-11.5692
▁Head	-11.5693
▁Oma	-11.5695
▁loaded	-11.5696
▁identif	-11.5697
▁Terribl	-11.5698
▁awfulness	-11.5701
▁dragg	-11.5706
izer	-11.5715
▁survived	-11.572
thin	-11.5725
▁hunting	-11.5726
-20	-11.5727
▁sooner	-11.5727
▁criticize	-11.5727
yday	-11.5728
▁mouse	-11.5728
▁Hero	-11.5728
AG	-11.5729
▁exposed	-11.573
▁limb	-11.5732
▁widely	-11.5734
▁mail	-11.5738
▁Hum	-11.5741
▁tortured	-11.5744
▁discovery	-11.5751
▁surg	-11.5759
▁Soon	-11.5761
1983	-11.5762
67	-11.5766
cracking	-11.5768
rude	-11.5769
fic	-11.5769
phone	-11.5779
Trash	-11.579
▁$4	-11.5792
▁smaller	-11.5797
Dude	-11.5798
▁deer	-11.5805
▁boo	-11.582
▁upper	-11.5822
EX	-11.5848
▁slu	-11.5848
!!!!!!!!	-11.5865
ux	-11.5871
gard	-11.5878
TION	-11.5879
▁bitch	-11.5881
osis	-11.5904
▁participant	-11.5913
▁Mach	-11.5917
OUS	-11.5921
ncil	-11.5934
▁struggl	-11.5948
▁code	-11.5967
▁Ban	-11.6007
hell	-11.6007
pass	-11.6022
RD	-11.604
ffic	-11.6045
dense	-11.6056
tua	-11.6062
▁generat	-11.6063
▁Pen	-11.6063
Happ	-11.6073
affe	-11.6093
vari	-11.6096
umm	-11.6111
▁teache	-11.6117
Who	-11.6119
Ver	-11.6125
cam	-11.6127
▁tense	-11.6129
ET	-11.6181
▁FOR	-11.6183
▁McC	-11.6201
esque	-11.622
▁slapp	-11.6233
Lost	-11.6316
▁article	-11.6387
▁adore	-11.6387
▁bul	-11.6395
▁stripp	-11.6405
zill	-11.643
realistic	-11.645
▁ple	-11.6507
▁Cle	-11.6513
lust	-11.6524
▁bot	-11.6578
eathbed	-11.6624
▁Pla	-11.6629
THE	-11.6633
▁(200	-11.6636
Crap	-11.6658
choo	-11.6663
ploy	-11.6673
▁woo	-11.6682
astly	-11.6688
▁alleged	-11.6693
.........	-11.6694
▁Leo	-11.6746
Com	-11.6821
ggling	-11.6887
▁Maria	-11.6888
moving	-11.6891
▁dislik	-11.6892
▁hug	-11.6907
vu	-11.6928
believers	-11.6948
▁ignor	-11.6956
▁Joann	-11.697
▁lone	-11.6985
▁accuse	-11.6987
PT	-11.6992
tory	-11.7004
▁instruct	-11.7008
▁resist	-11.702
robably	-11.7031
llible	-11.7033
▁devi	-11.7033
augh	-11.7034
▁Tu	-11.7053
AVE	-11.7114
grav	-11.7126
hill	-11.7129
▁eng	-11.7142
▁rub	-11.7143
US	-11.7144
▁Lia	-11.7154
Granted	-11.7201
▁tag	-11.7221
▁terroriz	-11.7236
▁ensue	-11.7308
Boring	-11.7309
▁Brother	-11.7311
▁segment	-11.7313
ackground	-11.7314
▁breast	-11.7316
ritz	-11.7316
▁dinosaur	-11.7317
▁folk	-11.7325
▁Roger	-11.7325
aker	-11.7327
▁explor	-11.7346
▁Andrew	-11.7367
▁loser	-11.7373
▁Lame	-11.7389
▁depend	-11.7402
▁East	-11.7408
▁survival	-11.7428
▁captur	-11.7433
wash	-11.7447
ject	-11.7454
▁(197	-11.7462
mill	-11.7463
oriented	-11.7464
layed	-11.7479
▁squa	-11.7484
telling	-11.7488
▁TR	-11.7488
Superhero	-11.7491
Lisa	-11.7491
related	-11.7491
Finally	-11.7494
Ghost	-11.7494
developed	-11.7494
Doug	-11.7495
Soultaker	-11.7495
Solomon	-11.7495
drama	-11.7495
OUT	-11.7496
standard	-11.7496
model	-11.7496
Vampire	-11.7496
club	-11.7496
effective	-11.7496
point	-11.7496
frame	-11.7496
Dark	-11.7497
believe	-11.7497
attractive	-11.7497
Big	-11.7497
seeking	-11.7497
Vacation	-11.7497
Because	-11.7497
Two	-11.7497
surprise	-11.7497
Basically	-11.7497
Richard	-11.7497
creature	-11.7498
apparently	-11.7498
average	-11.7498
complete	-11.7498
third	-11.7498
black	-11.7498
writing	-11.7498
women	-11.7498
actually	-11.7498
joke	-11.75
Myster	-11.75
spoiler	-11.7501
easy	-11.7501
▁plac	-11.7501
monster	-11.7501
Really	-11.7502
speak	-11.7503
particularly	-11.7503
Jack	-11.7503
Prett	-11.7503
close	-11.7503
again	-11.7504
sorry	-11.7505
music	-11.7506
through	-11.7507
could	-11.7507
Bob	-11.7509
Plan	-11.7513
Sleep	-11.7513
someone	-11.7516
▁disgust	-11.7519
▁India	-11.7526
INAL	-11.753
▁taxi	-11.753
truck	-11.7532
▁investigat	-11.7533
▁intend	-11.7535
matter	-11.7535
▁frequent	-11.754
▁promote	-11.7545
▁resolve	-11.7546
▁invite	-11.7546
Was	-11.7546
▁attend	-11.7549
▁valu	-11.7549
Golde	-11.7549
almost	-11.7551
▁Home	-11.7553
perhaps	-11.7554
rection	-11.7554
▁Wick	-11.7558
▁piti	-11.7562
▁bash	-11.7563
illion	-11.7563
▁enthusiast	-11.7563
▁Turn	-11.7564
WAY	-11.7565
▁swim	-11.7565
▁distribut	-11.7565
▁Ever	-11.7566
timate	-11.7566
▁sentiment	-11.7567
▁dimension	-11.7567
▁convention	-11.7568
▁bubbl	-11.7569
▁select	-11.757
▁STAR	-11.757
▁skelet	-11.7571
▁careful	-11.7571
semblance	-11.7571
netheless	-11.7572
uspense	-11.7574
▁Fantas	-11.7574
earch	-11.7574
▁venge	-11.7575
advert	-11.7575
▁mount	-11.7575
▁smug	-11.7575
▁addict	-11.7575
oblivio	-11.7575
▁plod	-11.7575
~	-11.7575
cycle	-11.7575
▁narc	-11.7575
rthodox	-11.7575
▁Clooney	-11.7575
▁UNDER	-11.7575
▁caliber	-11.7575
▁license	-11.7575
▁narrow	-11.7575
▁neighbour	-11.7575
▁perpetuat	-11.7575
@	-11.7575
Belphégor	-11.7575
Cannibal	-11.7575
Citizen	-11.7575
Critters	-11.7575
Holbrook	-11.7575
Kamerling	-11.7575
Separate	-11.7575
Vargas	-11.7575
approximately	-11.7575
claustrophobi	-11.7575
communist	-11.7575
possibilities	-11.7575
proportion	-11.7575
sarcasm	-11.7575
í	-11.7575
ó	-11.7575
▁'70	-11.7575
▁1984	-11.7575
▁1987	-11.7575
▁1988	-11.7575
▁1997	-11.7575
▁Bravo	-11.7575
▁Carradine	-11.7575
▁Century	-11.7575
▁Convention	-11.7575
▁Coogan	-11.7575
▁Crystal	-11.7575
▁Deodato	-11.7575
▁Detroit	-11.7575
▁Dohler	-11.7575
▁Dunaway	-11.7575
▁Effects	-11.7575
▁Experiment	-11.7575
▁FILM	-11.7575
▁Fairbanks	-11.7575
▁Faye	-11.7575
▁Florida	-11.7575
▁Fraser	-11.7575
▁GREAT	-11.7575
▁Garcia	-11.7575
▁Giphart	-11.7575
▁Grenier	-11.7575
▁HELL	-11.7575
▁Henstridge	-11.7575
▁Hmmm	-11.7575
▁Javier	-11.7575
▁Jenkins	-11.7575
▁Kansas	-11.7575
▁Kaufman	-11.7575
▁Kazakhstan	-11.7575
▁Krantz	-11.7575
▁Leatherface	-11.7575
▁Louvre	-11.7575
▁Malibu	-11.7575
▁Marguerite	-11.7575
▁Mitchum	-11.7575
▁Montalban	-11.7575
▁Mortensen	-11.7575
▁Murphy	-11.7575
▁NBC	-11.7575
▁Neither	-11.7575
▁Nelson	-11.7575
▁Netflix	-11.7575
▁Nicholson	-11.7575
▁OVER	-11.7575
▁Oliver	-11.7575
▁Predator	-11.7575
▁STUPID	-11.7575
▁Secor	-11.7575
▁Shakalaka	-11.7575
▁Sidney	-11.7575
▁Steenburgen	-11.7575
▁Wahlberg	-11.7575
▁Yawn	-11.7575
▁admirable	-11.7575
▁aficionado	-11.7575
▁astronaut	-11.7575
▁attribute	-11.7575
▁automatically	-11.7575
▁backdrop	-11.7575
▁camcorder	-11.7575
▁celebrity	-11.7575
▁cigar	-11.7575
▁cocaine	-11.7575
▁colonel	-11.7575
▁compassion	-11.7575
▁compliment	-11.7575
▁consistency	-11.7575
▁contradict	-11.7575
▁convert	-11.7575
▁culminat	-11.7575
▁debacle	-11.7575
▁disregard	-11.7575
▁educational	-11.7575
▁enraged	-11.7575
▁exhaust	-11.7575
▁faux	-11.7575
▁fiancé	-11.7575
▁furniture	-11.7575
▁gallery	-11.7575
▁grenade	-11.7575
▁hulking	-11.7575
▁imaginable	-11.7575
▁imaginative	-11.7575
▁implement	-11.7575
▁innovative	-11.7575
▁insomnia	-11.7575
▁invoke	-11.7575
▁irritation	-11.7575
▁karaoke	-11.7575
▁lampoon	-11.7575
▁misguided	-11.7575
▁morgue	-11.7575
▁necklace	-11.7575
▁nickname	-11.7575
▁omitted	-11.7575
▁overweight	-11.7575
▁penchant	-11.7575
▁picnic	-11.7575
▁plumb	-11.7575
▁pseudonym	-11.7575
▁radar	-11.7575
▁reappear	-11.7575
▁recognise	-11.7575
▁register	-11.7575
▁relevance	-11.7575
▁remarkable	-11.7575
▁revolting	-11.7575
▁sabotage	-11.7575
▁senior	-11.7575
▁sensible	-11.7575
▁sibling	-11.7575
▁silhouettes	-11.7575
▁silliness	-11.7575
▁skating	-11.7575
▁sobbing	-11.7575
▁sympathize	-11.7575
▁thieves	-11.7575
▁tunnels	-11.7575
▁unanswered	-11.7575
▁undeniabl	-11.7575
▁unexciting	-11.7575
▁unlikable	-11.7575
▁unsatisfying	-11.7575
▁unsuccessful	-11.7575
▁unwanted	-11.7575
▁valiant	-11.7575
▁videotape	-11.7575
▁werewolves	-11.7575
IMHO	-11.7575
▁(195	-11.7575
▁Canada	-11.7575
▁Hauser	-11.7575
▁READ	-11.7575
▁Renauld	-11.7575
▁Stratton	-11.7575
▁Strode	-11.7575
▁Thompson	-11.7575
▁Trouble	-11.7575
▁VCR	-11.7575
▁Warrior	-11.7575
▁absence	-11.7575
▁bimbo	-11.7575
▁cannibal	-11.7575
▁confirm	-11.7575
▁demise	-11.7575
▁diploma	-11.7575
▁fodder	-11.7575
▁function	-11.7575
▁groundbreaking	-11.7575
▁hollow	-11.7575
▁mafia	-11.7575
▁peasant	-11.7575
▁reckless	-11.7575
▁secure	-11.7575
▁suicidal	-11.7575
▁unfold	-11.7575
▁volume	-11.7575
revelation	-11.7575
▁Austin	-11.7575
▁DOES	-11.7575
▁Enron	-11.7575
▁Jerem	-11.7575
▁Knight	-11.7575
▁Marvin	-11.7575
▁Peace	-11.7575
▁Tucker	-11.7575
▁Ugh	-11.7575
▁baffle	-11.7575
▁chomp	-11.7575
▁evade	-11.7575
▁fierce	-11.7575
▁grant	-11.7575
▁grass	-11.7575
▁historian	-11.7575
▁insect	-11.7575
▁pleasing	-11.7575
▁rumor	-11.7575
▁splash	-11.7575
▁Cinema	-11.7575
▁Club	-11.7575
▁Llewel	-11.7575
▁Network	-11.7575
▁abundan	-11.7575
▁bleak	-11.7575
▁blink	-11.7575
▁disease	-11.7575
▁embar	-11.7575
▁karate	-11.7575
▁lipstick	-11.7575
▁muscle	-11.7575
▁poetic	-11.7575
▁stabbed	-11.7575
▁wimp	-11.7575
hydra	-11.7575
▁Barrie	-11.7575
▁mund	-11.7575
▁tactics	-11.7575
Yesterday	-11.7575
▁LOL	-11.7575
▁Owen	-11.7575
▁Palance	-11.7575
▁Wiley	-11.7575
▁academ	-11.7575
▁apply	-11.7575
▁carnage	-11.7575
▁interfer	-11.7575
▁manifest	-11.7575
▁outlandish	-11.7575
▁permanent	-11.7575
▁stomp	-11.7575
rizon	-11.7575
▁Child	-11.7575
▁Dutch	-11.7575
▁headache	-11.7575
▁voting	-11.7575
▁yarn	-11.7575
Toole	-11.7575
▁Vegas	-11.7575
▁erratic	-11.7575
▁CEO	-11.7575
▁galore	-11.7575
▁glaring	-11.7575
▁Elvis	-11.7576
▁grunt	-11.7576
▁mystical	-11.7576
▁Caravaggio	-11.7576
▁consequently	-11.7576
▁march	-11.7576
▁mustache	-11.7576
Lawrence	-11.7576
climb	-11.7576
▁spree	-11.7576
▁Fisher	-11.7576
▁agenda	-11.7576
▁misfit	-11.7576
▁crucifix	-11.7576
▁electronic	-11.7576
▁Russo	-11.7576
▁Kyra	-11.7576
▁Painful	-11.7576
▁Lucil	-11.7576
▁cotton	-11.7576
▁drum	-11.7576
▁stoner	-11.7576
▁wobbl	-11.7576
▁STD	-11.7576
▁eleven	-11.7576
▁strangle	-11.7576
UGH	-11.7576
ketch	-11.7576
▁bungl	-11.7576
squint	-11.7576
▁bloodshed	-11.7576
▁repelle	-11.7576
▁gusto	-11.7576
▁Murray	-11.7576
▁outdoor	-11.7576
▁spectrum	-11.7576
▁trademark	-11.7576
Censor	-11.7576
▁sadden	-11.7576
▁profit	-11.7576
bai	-11.7576
▁sample	-11.7576
▁Face	-11.7576
▁coincidental	-11.7576
▁lizard	-11.7576
▁liar	-11.7576
▁perceiv	-11.7576
scilla	-11.7576
://	-11.7576
▁Marines	-11.7576
▁Barely	-11.7576
▁embe	-11.7576
▁textbook	-11.7576
▁Court	-11.7576
▁conduct	-11.7576
▁squea	-11.7576
▁outdated	-11.7576
▁tech	-11.7576
Hammett	-11.7576
▁Coburn	-11.7576
▁Helen	-11.7576
▁miniseries	-11.7576
▁viewpoint	-11.7576
▁competition	-11.7576
▁observ	-11.7576
OOO	-11.7576
▁wield	-11.7576
▁2007	-11.7576
▁campfire	-11.7576
▁shining	-11.7576
▁2006	-11.7576
▁singular	-11.7576
▁hurry	-11.7576
▁GOOD	-11.7576
▁deserving	-11.7576
▁grey	-11.7577
▁Office	-11.7577
▁Thunderdome	-11.7577
▁raving	-11.7577
▁satellite	-11.7577
▁suspicious	-11.7577
▁democratic	-11.7577
Harold	-11.7577
▁lycan	-11.7577
Mafia	-11.7577
▁rampage	-11.7577
▁spike	-11.7577
Govern	-11.7577
Normal	-11.7577
▁Matrix	-11.7577
▁severely	-11.7577
▁Diane	-11.7577
▁mobster	-11.7577
Succubare	-11.7577
▁helmet	-11.7577
▁Hulkster	-11.7577
▁Shining	-11.7577
▁concoction	-11.7577
▁humiliation	-11.7577
▁financ	-11.7577
▁thread	-11.7577
Ocean	-11.7577
▁underwear	-11.7577
▁suburban	-11.7577
▁Barron	-11.7577
▁Anything	-11.7577
evaluat	-11.7577
▁coins	-11.7577
▁tele	-11.7577
▁pride	-11.7577
OLD	-11.7577
▁mutter	-11.7577
▁helm	-11.7577
▁moderate	-11.7577
▁misery	-11.7578
▁Judge	-11.7578
▁HOW	-11.7578
▁cheek	-11.7578
▁hokey	-11.7578
▁cancer	-11.7578
▁underdeveloped	-11.7578
▁border	-11.7578
Title	-11.7578
▁gunfire	-11.7578
▁detective	-11.7578
▁slob	-11.7578
▁debat	-11.7578
▁insufferable	-11.7578
▁Country	-11.7578
▁personalities	-11.7578
▁charity	-11.7578
▁Piper	-11.7578
▁Reality	-11.7578
▁rampa	-11.7579
uza	-11.7579
njoy	-11.7579
▁Irene	-11.7579
▁preced	-11.7579
▁Drug	-11.7579
▁unprofessional	-11.7579
▁obligation	-11.7579
▁establishment	-11.7579
▁passionate	-11.7579
▁Store	-11.7579
▁snack	-11.7579
▁Castle	-11.7579
▁grind	-11.7579
▁Berger	-11.7579
▁Dali	-11.7579
▁cursing	-11.758
▁skeleton	-11.758
▁diving	-11.758
▁melod	-11.758
▁Carmen	-11.758
▁Laughable	-11.758
▁Jager	-11.758
▁decorat	-11.758
!!!!!!!!!!!!!!!	-11.758
▁lamp	-11.7581
▁Phil	-11.7581
▁pretension	-11.7581
flated	-11.7581
▁loop	-11.7581
▁improvement	-11.7581
earl	-11.7581
▁complaints	-11.7581
LOW	-11.7582
▁sappy	-11.7582
▁apocalypse	-11.7582
▁priceless	-11.7582
▁Lead	-11.7582
▁cannon	-11.7582
▁vein	-11.7583
▁Justice	-11.7583
Wired	-11.7583
▁nation	-11.7583
▁Could	-11.7583
▁instructor	-11.7583
▁poke	-11.7583
▁bride	-11.7583
▁Candy	-11.7583
▁roar	-11.7583
Married	-11.7584
▁vanity	-11.7584
▁trio	-11.7584
IGHT	-11.7584
▁Factor	-11.7584
▁Thus	-11.7584
▁zone	-11.7584
olated	-11.7584
▁countryside	-11.7584
▁Marx	-11.7584
estimate	-11.7584
▁dwell	-11.7585
▁Borth	-11.7585
▁Beau	-11.7585
▁sweaty	-11.7586
▁Dirt	-11.7586
▁Elizabeth	-11.7586
▁unexplained	-11.7586
▁Mattie	-11.7586
▁colorful	-11.7586
▁rewritten	-11.7586
▁adolescent	-11.7587
▁beforehand	-11.7587
▁depart	-11.7587
▁reverse	-11.7587
▁diversity	-11.7587
▁submit	-11.7587
▁enthusiastic	-11.7588
▁puff	-11.7588
▁antics	-11.7588
▁earnest	-11.7589
▁Rather	-11.7589
▁Davidson	-11.7589
▁Kang	-11.7589
▁Long	-11.759
▁patch	-11.759
▁vanishes	-11.759
▁MOR	-11.759
▁uh	-11.7591
▁brush	-11.7591
▁legit	-11.7591
▁cram	-11.7592
▁Linc	-11.7592
▁crazed	-11.7592
worship	-11.7593
▁chic	-11.7593
▁documented	-11.7593
▁symbolic	-11.7593
▁300	-11.7594
▁gh	-11.7595
▁Dino	-11.7595
▁coup	-11.7595
▁nonetheless	-11.7595
▁Touch	-11.7595
LES	-11.7595
▁proto	-11.7596
▁Lane	-11.7596
▁Nig	-11.7596
▁bush	-11.7597
▁leftover	-11.7597
▁youngster	-11.7597
▁sway	-11.7598
▁loon	-11.7598
▁Serb	-11.7598
▁boom	-11.7598
▁Grand	-11.7599
▁ambi	-11.76
Dial	-11.76
▁cleverness	-11.76
▁chicken	-11.76
▁USS	-11.7601
▁Kove	-11.7601
▁Cris	-11.7601
▁showdown	-11.7601
▁runtime	-11.7602
Valeri	-11.7602
▁Dialog	-11.7603
▁Cast	-11.7603
▁cage	-11.7603
▁chor	-11.7603
▁deliberate	-11.7603
▁wheel	-11.7604
▁affection	-11.7604
▁midst	-11.7604
▁Herman	-11.7605
▁THEY	-11.7605
▁perfection	-11.7605
▁blo	-11.7605
▁promoted	-11.7606
▁squad	-11.7606
▁tick	-11.7606
▁invited	-11.7606
▁Ria	-11.7607
▁Duff	-11.7607
much	-11.7608
pathi	-11.7608
Rex	-11.7609
▁Hour	-11.7609
▁relieve	-11.761
▁cocky	-11.7612
▁sickness	-11.7612
▁vibra	-11.7615
▁defeated	-11.7616
▁ram	-11.7616
▁Coen	-11.7617
▁Ric	-11.7617
▁Butler	-11.7618
▁lol	-11.7619
▁ammo	-11.7623
▁sleaze	-11.7623
▁jerky	-11.7625
▁faded	-11.7626
little	-11.7626
▁scripture	-11.7627
▁villager	-11.7628
carl	-11.7629
▁sup	-11.7629
Victor	-11.763
▁distinctly	-11.763
▁strangest	-11.7632
▁nun	-11.7635
▁variati	-11.7637
▁Army	-11.7638
▁rapidly	-11.7638
▁placement	-11.7638
▁fairness	-11.7638
cause	-11.764
▁crop	-11.7641
Thunder	-11.7641
▁unexpectedly	-11.7646
▁justified	-11.7654
▁sucker	-11.7655
▁Real	-11.7659
arten	-11.7661
▁resembl	-11.7665
Find	-11.7666
▁passes	-11.7666
▁linear	-11.7668
▁parade	-11.7668
nticipation	-11.7668
▁explorer	-11.767
▁Ball	-11.767
hippie	-11.7678
▁spe	-11.7686
▁pout	-11.7689
▁1934	-11.7691
Warning	-11.7693
▁bullie	-11.7699
▁whine	-11.7701
1969	-11.7701
▁Penn	-11.7708
itable	-11.7713
▁explored	-11.7714
▁Saw	-11.7722
rray	-11.7722
▁orchestrate	-11.7725
lurid	-11.7725
escent	-11.7731
▁Stra	-11.7733
66	-11.7739
pulse	-11.774
▁Raz	-11.774
▁Easter	-11.7747
.5/10	-11.7747
onald	-11.7759
GET	-11.7763
▁sand	-11.7768
▁subtitl	-11.7769
▁metaphor	-11.7771
asco	-11.7774
▁Hur	-11.7776
Nail	-11.7776
▁dime	-11.7784
ibly	-11.779
▁Jul	-11.7796
▁shi	-11.7812
bbie	-11.782
000	-11.7823
▁drift	-11.7823
stantly	-11.7827
▁redundan	-11.7828
▁sab	-11.7829
▁setup	-11.7833
▁capitaliz	-11.7833
▁creepie	-11.7836
tress	-11.7839
▁updat	-11.7855
Charleston	-11.7861
NES	-11.7863
▁flipp	-11.7871
▁Pate	-11.7876
▁Marcia	-11.7896
▁char	-11.7961
▁Mak	-11.8
▁slave	-11.8007
vention	-11.8015
▁soooo	-11.8034
pical	-11.804
Can	-11.8053
lex	-11.8055
▁prais	-11.8057
▁remov	-11.8094
traditional	-11.8162
▁tri	-11.8211
mination	-11.8225
▁wri	-11.8237
Take	-11.8246
▁pill	-11.8298
uncan	-11.8311
stopp	-11.8311
MEN	-11.8316
cutter	-11.8321
▁Romania	-11.8329
Eye	-11.8335
▁bogg	-11.8364
▁announc	-11.8374
ddled	-11.8406
gged	-11.8436
▁offend	-11.8445
nough	-11.8512
open	-11.8563
Arm	-11.8582
▁doze	-11.8626
var	-11.8664
▁Leg	-11.8699
▁calculat	-11.8716
▁dispose	-11.8718
▁Script	-11.8722
▁matur	-11.8745
▁Vic	-11.8782
▁communicat	-11.881
plight	-11.8891
Lau	-11.8965
▁contribut	-11.8967
▁congratulat	-11.9064
TOO	-11.914
#	-11.9146
mple	-11.9174
remarkably	-11.9184
▁exchang	-11.9188
ORS	-11.9221
▁thirst	-11.9223
▁Yi	-11.9229
75	-11.923
Jai	-11.9271
arious	-11.9285
▁tradition	-11.937
▁stab	-11.9457
▁barr	-11.9496
20	-11.9508
ooooo	-11.9548
Mart	-11.9565
▁hung	-11.9592
▁Gerr	-11.9641
meter	-11.9642
45	-11.9651
▁virtu	-11.9674
lucky	-11.9676
ARS	-11.9694
▁blur	-11.974
forms	-11.9744
▁litera	-11.9792
▁moron	-11.9806
▁thug	-11.9811
UM	-11.9813
oiled	-11.9814
▁Texa	-11.9832
self	-11.9856
Bab	-11.9857
▁1.5	-11.9867
▁repu	-11.9906
▁anticipat	-11.9957
▁Terr	-11.9979
world	-11.9986
▁Swi	-11.9991
▁significan	-11.9991
apocalyp	-11.9991
quarters	-11.9993
expert	-11.9993
dubbed	-11.9993
proof	-11.9993
professional	-11.9993
▁importan	-11.9993
Arthur	-11.9994
Friday	-11.9994
Party	-11.9994
▁assist	-11.9994
Over	-11.9994
▁mus	-11.9995
Battle	-11.9995
Three	-11.9995
sport	-11.9995
Galaxina	-11.9995
trust	-11.9996
Wicked	-11.9996
switch	-11.9996
adventure	-11.9996
Thank	-11.9997
biker	-11.9997
familiar	-11.9997
fantasy	-11.9997
Chupacabra	-11.9997
Boy	-11.9997
plus	-11.9997
Probably	-11.9997
romantic	-11.9997
Christmas	-11.9997
shocking	-11.9997
literally	-11.9997
victim	-11.9997
documentary	-11.9997
nasty	-11.9997
Indian	-11.9997
Wood	-11.9997
possible	-11.9998
James	-11.9998
entertainment	-11.9998
villain	-11.9998
modern	-11.9998
buddy	-11.9998
thriller	-11.9998
yeah	-11.9998
boyfriend	-11.9998
between	-11.9998
woman	-11.9998
level	-11.9998
wind	-11.9998
talent	-11.9999
dramatic	-11.9999
eems	-12
▁schem	-12
mission	-12
Paul	-12.0002
comedy	-12.0002
dude	-12.0003
burn	-12.0003
guard	-12.0003
game	-12.0006
Nash	-12.0006
based	-12.0007
Mod	-12.0011
▁activit	-12.0011
week	-12.0011
Never	-12.0012
blow	-12.0018
super	-12.0018
staged	-12.0018
▁compell	-12.002
mother	-12.0021
Wow	-12.0022
▁defeat	-12.0024
▁contend	-12.0027
▁possess	-12.0029
5%	-12.0029
workers	-12.003
▁profession	-12.0032
▁slack	-12.0034
▁battl	-12.0038
*****	-12.0039
oggi	-12.0039
▁Natural	-12.004
▁atrocit	-12.0047
▁bias	-12.0047
▁grain	-12.0047
▁quirk	-12.0047
▁swor	-12.0047
▁literal	-12.0049
▁Lizz	-12.0049
▁episod	-12.0049
▁spook	-12.005
▁absolut	-12.0054
fisted	-12.0055
▁exorcis	-12.006
▁polic	-12.006
▁HORR	-12.0062
▁distan	-12.0063
▁Direct	-12.0066
▁disast	-12.0067
articularly	-12.0068
ntelligent	-12.0068
UCK	-12.0068
▁speech	-12.0068
haven	-12.007
▁apprecia	-12.007
onkey	-12.0071
▁scienti	-12.0071
▁purpo	-12.0071
▁dialo	-12.0071
▁Isabel	-12.0072
▁responsib	-12.0072
▁alcohol	-12.0073
imilar	-12.0074
ecret	-12.0074
▁SEE	-12.0074
▁marvel	-12.0074
▁democra	-12.0074
xpect	-12.0074
ontrary	-12.0074
OME	-12.0074
riangle	-12.0074
▁monk	-12.0074
▁confusi	-12.0075
ehind	-12.0075
▁intellect	-12.0075
lenty	-12.0075
mortal	-12.0075
▁stereo	-12.0075
▁Resham	-12.0075
-70	-12.0075
destructi	-12.0075
---------	-12.0075
fluent	-12.0075
frozen	-12.0075
▁Esposit	-12.0075
▁Liotta	-12.0075
▁clutch	-12.0075
▁counsel	-12.0075
▁dispens	-12.0075
▁floozy	-12.0075
AVOID	-12.0075
AWFUL	-12.0075
Ausentes	-12.0075
Delusion	-12.0075
Django	-12.0075
EVIL	-12.0075
Escanaba	-12.0075
Escape	-12.0075
Excellent	-12.0075
Ferrigno	-12.0075
Focus	-12.0075
Garbage	-12.0075
Herzog	-12.0075
Supposedly	-12.0075
Surprisingly	-12.0075
Tennessee	-12.0075
Written	-12.0075
ZOMBIE	-12.0075
anctimon	-12.0075
christian	-12.0075
civilization	-12.0075
disadvantage	-12.0075
enactment	-12.0075
holocaust	-12.0075
laundry	-12.0075
malgam	-12.0075
marijuana	-12.0075
retribution	-12.0075
surveillance	-12.0075
▁1957	-12.0075
▁Almodovar	-12.0075
▁April	-12.0075
▁Arlington	-12.0075
▁Austen	-12.0075
▁BOMB	-12.0075
▁Balfour	-12.0075
▁Belphegor	-12.0075
▁Bostwick	-12.0075
▁Bounty	-12.0075
▁CRAP	-12.0075
▁Cassandra	-12.0075
▁Chestnut	-12.0075
▁Cliché	-12.0075
▁Colonel	-12.0075
▁Committee	-12.0075
▁Crawford	-12.0075
▁Crichton	-12.0075
▁Enchanted	-12.0075
▁Entertainment	-12.0075
▁Extreme	-12.0075
▁Farmiga	-12.0075
▁Filipino	-12.0075
▁Francisville	-12.0075
▁Funicello	-12.0075
▁Garris	-12.0075
▁Gibson	-12.0075
▁Gladiator	-12.0075
▁Grease	-12.0075
▁HIGH	-12.0075
▁Harriet	-12.0075
▁Hayden	-12.0075
▁Hemingway	-12.0075
▁Higgin	-12.0075
▁Holocaust	-12.0075
▁Hoskins	-12.0075
▁Hourglass	-12.0075
▁Lovejoy	-12.0075
▁Pesci	-12.0075
▁Physic	-12.0075
▁Pittsburgh	-12.0075
▁Ramsay	-12.0075
▁Regardless	-12.0075
▁Rigoletto	-12.0075
▁Sabato	-12.0075
▁Singapore	-12.0075
▁Slayer	-12.0075
▁Sturges	-12.0075
▁Surprise	-12.0075
▁THINK	-12.0075
▁TIME	-12.0075
▁Technically	-12.0075
▁True	-12.0075
▁Truly	-12.0075
▁VIII	-12.0075
▁Voorhees	-12.0075
▁WRONG	-12.0075
▁Whalley	-12.0075
▁Wiggly	-12.0075
▁accommodat	-12.0075
▁admirably	-12.0075
▁advertising	-12.0075
▁airport	-12.0075
▁ammunition	-12.0075
▁anachronis	-12.0075
▁arbitrary	-12.0075
▁association	-12.0075
▁bartender	-12.0075
▁beggars	-12.0075
▁centuries	-12.0075
▁chronological	-12.0075
▁cockroach	-12.0075
▁continent	-12.0075
▁decapitation	-12.0075
▁degenerate	-12.0075
▁deteriorates	-12.0075
▁diamond	-12.0075
▁dictator	-12.0075
▁disintegrate	-12.0075
▁dripping	-12.0075
▁economy	-12.0075
▁endeavor	-12.0075
▁enormous	-12.0075
▁evacuat	-12.0075
▁evangelical	-12.0075
▁exaggeration	-12.0075
▁expendable	-12.0075
▁gigolo	-12.0075
▁hellraiser	-12.0075
▁hilarity	-12.0075
▁impregna	-12.0075
▁increase	-12.0075
▁inexplicabl	-12.0075
▁infiltrat	-12.0075
▁intimidati	-12.0075
▁intricate	-12.0075
▁irrelevanc	-12.0075
▁luxury	-12.0075
▁manuscript	-12.0075
▁memorized	-12.0075
▁microphone	-12.0075
▁monstrosity	-12.0075
▁montage	-12.0075
▁morbid	-12.0075
▁nominee	-12.0075
▁occult	-12.0075
▁pervert	-12.0075
▁plagiari	-12.0075
▁plaster	-12.0075
▁plentiful	-12.0075
▁portrait	-12.0075
▁primitive	-12.0075
▁pronunciation	-12.0075
▁python	-12.0075
▁radiation	-12.0075
▁rebellion	-12.0075
▁recipe	-12.0075
▁recognizable	-12.0075
▁relentless	-12.0075
▁rhythm	-12.0075
▁satisfactor	-12.0075
▁scalpel	-12.0075
▁schedule	-12.0075
▁scrubs	-12.0075
▁seductive	-12.0075
▁sleeve	-12.0075
▁spectator	-12.0075
▁stadium	-12.0075
▁superfluous	-12.0075
▁swamp	-12.0075
▁telegraph	-12.0075
▁tranquil	-12.0075
▁transparent	-12.0075
▁transport	-12.0075
▁treasure	-12.0075
▁triumph	-12.0075
▁trivial	-12.0075
▁twang	-12.0075
▁unbiased	-12.0075
▁unconventional	-12.0075
▁unrequited	-12.0075
▁victory	-12.0075
▁vigilante	-12.0075
▁volunteer	-12.0075
▁voyeur	-12.0075
▁wisdom	-12.0075
acquaint	-12.0075
▁Amadeus	-12.0075
▁Clarice	-12.0075
▁Flood	-12.0075
▁Fraker	-12.0075
▁Lounge	-12.0075
▁Occasional	-12.0075
▁Public	-12.0075
▁Rapture	-12.0075
▁WITH	-12.0075
▁acknowledge	-12.0075
▁anonym	-12.0075
▁dignity	-12.0075
▁elegan	-12.0075
▁enlighten	-12.0075
▁evolv	-12.0075
▁filter	-12.0075
▁hillbill	-12.0075
▁imbecil	-12.0075
▁laboured	-12.0075
▁launcher	-12.0075
▁masculin	-12.0075
▁phase	-12.0075
▁plug	-12.0075
▁reprise	-12.0075
▁resident	-12.0075
▁speculati	-12.0075
▁squish	-12.0075
▁unaware	-12.0075
▁virgin	-12.0075
terminator	-12.0075
▁Alexander	-12.0075
▁Ananka	-12.0075
▁Bryant	-12.0075
▁Costner	-12.0075
▁Dragonfly	-12.0075
▁Highlander	-12.0075
▁Ignor	-12.0075
▁Miami	-12.0075
▁Sadler	-12.0075
▁Zeena	-12.0075
▁clerk	-12.0075
▁collapse	-12.0075
▁concert	-12.0075
▁courage	-12.0075
▁fawn	-12.0075
▁frail	-12.0075
▁goblin	-12.0075
▁niece	-12.0075
▁repair	-12.0075
▁retitled	-12.0075
▁retrieve	-12.0075
▁reunite	-12.0075
▁sillie	-12.0075
▁staff	-12.0075
▁unemploy	-12.0075
▁Passion	-12.0075
▁Weapon	-12.0075
▁spray	-12.0075
▁tweak	-12.0075
Brazil	-12.0075
▁Cooper	-12.0075
▁Kahn	-12.0075
▁Khoo	-12.0075
▁Locke	-12.0075
▁conquer	-12.0075
▁harass	-12.0075
▁pattern	-12.0075
▁snooze	-12.0075
▁sorcer	-12.0075
▁staple	-12.0075
▁tentative	-12.0075
dissolve	-12.0075
▁Alpha	-12.0075
▁Dahl	-12.0075
▁Domini	-12.0075
▁Shue	-12.0075
▁chaos	-12.0075
▁relax	-12.0075
▁stool	-12.0075
▁surgeon	-12.0075
▁swan	-12.0075
▁venom	-12.0075
▁zany	-12.0075
same	-12.0075
▁DNA	-12.0075
▁brood	-12.0075
▁consciousness	-12.0075
▁expand	-12.0075
▁kidnapping	-12.0075
▁opportunities	-12.0075
▁static	-12.0075
▁Brooks	-12.0075
▁Gerald	-12.0075
▁Ollie	-12.0075
▁conviction	-12.0075
▁nemesis	-12.0075
hantom	-12.0075
▁Fool	-12.0075
▁Hessling	-12.0075
▁conscience	-12.0075
▁fetish	-12.0075
▁Hulkamania	-12.0076
▁Politic	-12.0076
▁mankind	-12.0076
▁operative	-12.0076
▁Maltin	-12.0076
▁garage	-12.0076
▁heiress	-12.0076
▁tyran	-12.0076
▁stitch	-12.0076
Gomeda	-12.0076
▁stroll	-12.0076
▁suffice	-12.0076
3.99	-12.0076
interpret	-12.0076
▁carbon	-12.0076
▁reviv	-12.0076
▁waitress	-12.0076
IKE	-12.0076
▁cloak	-12.0076
▁marine	-12.0076
Tunnel	-12.0076
▁Trum	-12.0076
▁gloss	-12.0076
▁limo	-12.0076
▁racing	-12.0076
▁boast	-12.0076
▁qualif	-12.0076
▁Annoy	-12.0076
▁SOMETHING	-12.0076
▁Close	-12.0076
▁lamb	-12.0076
▁presume	-12.0076
Comanche	-12.0076
▁Balk	-12.0076
radical	-12.0076
oooooooooo	-12.0076
▁league	-12.0076
▁emer	-12.0076
▁mutat	-12.0076
▁slander	-12.0076
▁delve	-12.0076
▁psychosis	-12.0076
agasse	-12.0076
Divine	-12.0076
▁tackle	-12.0076
▁ordeal	-12.0076
Lucian	-12.0076
▁tendenc	-12.0076
aaaa	-12.0076
strictions	-12.0076
▁Toshi	-12.0076
▁resurrection	-12.0076
▁forehead	-12.0076
▁lewd	-12.0076
▁Enter	-12.0076
▁unfulfill	-12.0076
environmentalist	-12.0076
▁Randle	-12.0076
▁Sully	-12.0076
▁bloodsuck	-12.0076
▁exclusive	-12.0076
▁Henri	-12.0076
▁liqu	-12.0076
▁Banks	-12.0076
▁tissue	-12.0076
▁accusations	-12.0076
▁retire	-12.0076
▁resign	-12.0076
▁android	-12.0076
▁lurk	-12.0076
▁madden	-12.0076
▁toxie	-12.0076
Meltdown	-12.0076
▁asinine	-12.0076
▁extract	-12.0076
▁Emer	-12.0076
▁psychiatrist	-12.0076
▁1920	-12.0076
▁Guts	-12.0076
▁jogg	-12.0076
▁RUN	-12.0076
▁reveren	-12.0076
utilize	-12.0076
wich	-12.0076
▁hammer	-12.0076
▁fraud	-12.0076
▁constraints	-12.0076
Gabby	-12.0076
▁fiery	-12.0076
▁disrupt	-12.0076
▁elections	-12.0077
▁representative	-12.0077
ommodo	-12.0077
▁Gilda	-12.0077
▁brainwash	-12.0077
▁purg	-12.0077
▁fortune	-12.0077
▁Camber	-12.0077
Marlowe	-12.0077
squawk	-12.0077
▁nineties	-12.0077
▁distress	-12.0077
▁masturbation	-12.0077
▁1998	-12.0077
▁pillow	-12.0077
▁Serbian	-12.0077
▁verbal	-12.0077
▁submission	-12.0077
▁depression	-12.0077
▁dawn	-12.0077
▁Kenny	-12.0077
▁glorious	-12.0077
▁sniff	-12.0077
ESTER	-12.0077
▁misfire	-12.0077
▁2008	-12.0077
▁borderline	-12.0077
▁contrary	-12.0077
▁marvelous	-12.0077
▁SEEN	-12.0077
▁McDonald	-12.0077
▁glory	-12.0077
▁descent	-12.0077
Generic	-12.0077
▁Left	-12.0077
▁thankfully	-12.0077
▁hallway	-12.0077
Creature	-12.0077
▁Theatre	-12.0078
cipher	-12.0078
OWN	-12.0078
▁Nipar	-12.0078
▁Ronell	-12.0078
▁sixties	-12.0078
▁eject	-12.0078
▁texture	-12.0078
▁Spain	-12.0078
▁bullsh	-12.0078
▁abyss	-12.0078
▁Magic	-12.0078
▁seals	-12.0078
▁$50	-12.0078
▁fluid	-12.0078
▁Burn	-12.0078
shape	-12.0078
▁Dragon	-12.0078
▁charter	-12.0078
▁classmate	-12.0078
alaria	-12.0078
hrift	-12.0078
▁heartbreak	-12.0078
▁sunny	-12.0078
▁blade	-12.0078
Ernest	-12.0078
▁noteworthy	-12.0078
▁envy	-12.0078
▁ROB	-12.0078
▁skimp	-12.0078
▁deranged	-12.0079
▁dingy	-12.0079
▁Godfather	-12.0079
▁Gilli	-12.0079
Ironically	-12.0079
▁Lauter	-12.0079
▁Holly	-12.0079
▁mush	-12.0079
RAY	-12.0079
▁housewife	-12.0079
▁cried	-12.0079
▁WWF	-12.0079
▁halt	-12.0079
▁framework	-12.0079
River	-12.0079
▁nostalgic	-12.0079
▁obscen	-12.008
igger	-12.008
▁honey	-12.008
▁easier	-12.008
▁Judy	-12.008
rupt	-12.008
▁bucket	-12.008
▁lens	-12.008
▁GOD	-12.008
genious	-12.008
▁specifically	-12.008
▁87	-12.008
▁rapist	-12.008
▁pirate	-12.008
▁hippies	-12.008
General	-12.008
Dylan	-12.0081
▁Comedy	-12.0081
▁bounce	-12.0081
▁trappers	-12.0081
▁grandma	-12.0081
▁litter	-12.0081
▁penetrat	-12.0081
▁disappearance	-12.0081
▁Annette	-12.0081
▁authenticity	-12.0081
▁complexity	-12.0081
feel	-12.0081
▁east	-12.0081
▁adventurers	-12.0081
▁Wasson	-12.0082
▁Oldman	-12.0082
▁unrelated	-12.0082
▁farmer	-12.0082
▁Carlton	-12.0082
▁serviceable	-12.0082
▁freedom	-12.0082
▁Somewhere	-12.0082
▁operation	-12.0082
▁midway	-12.0082
▁speeches	-12.0082
BRA	-12.0083
******	-12.0083
hounds	-12.0083
▁SOME	-12.0083
▁Houseman	-12.0083
▁STARS	-12.0083
zzi	-12.0083
▁SUCK	-12.0083
▁motor	-12.0083
▁sentimentality	-12.0083
▁starlet	-12.0083
▁flawless	-12.0083
▁Drama	-12.0084
▁Carrie	-12.0084
▁defici	-12.0084
▁protection	-12.0084
▁Grey	-12.0084
▁echo	-12.0084
xious	-12.0085
▁playboy	-12.0085
▁Phoe	-12.0085
athan	-12.0085
▁Sharon	-12.0085
▁99	-12.0085
▁ox	-12.0086
▁Prof	-12.0086
▁maul	-12.0086
47	-12.0086
▁alert	-12.0086
▁attendant	-12.0086
▁GRE	-12.0086
▁downfall	-12.0087
▁Trac	-12.0087
▁lake	-12.0087
▁Berry	-12.0088
▁Ooh	-12.0088
▁Kher	-12.0088
▁unconscious	-12.0089
▁trial	-12.0089
▁Depp	-12.0089
▁transformation	-12.0089
▁wallow	-12.0089
▁exceptionally	-12.009
▁sandwiches	-12.009
KED	-12.0091
▁spice	-12.0091
▁esp	-12.0091
▁Sue	-12.0091
▁Armin	-12.0091
▁Luis	-12.0091
▁coke	-12.0092
lique	-12.0092
▁glue	-12.0092
▁soulless	-12.0093
▁Color	-12.0094
▁Fellin	-12.0094
▁SEA	-12.0094
ALLY	-12.0094
ssors	-12.0094
▁Idle	-12.0096
▁succession	-12.0096
▁washing	-12.0097
▁Pope	-12.0097
▁heels	-12.0097
▁oz	-12.0097
▁murderous	-12.0097
▁brutality	-12.0098
▁sung	-12.0098
▁Manson	-12.0098
▁absurdity	-12.0098
AGE	-12.0099
▁pisse	-12.0099
nominations	-12.0099
▁businessman	-12.01
predictability	-12.01
▁Deol	-12.01
chewing	-12.01
▁masses	-12.01
▁scriptwriter	-12.0101
docu	-12.0101
▁sack	-12.0101
avish	-12.0102
▁airline	-12.0102
▁Dern	-12.0102
▁36	-12.0102
▁aunt	-12.0103
Creat	-12.0103
▁futil	-12.0105
versus	-12.0105
▁App	-12.0107
▁policeman	-12.0107
▁novella	-12.0108
▁Toys	-12.0109
ntire	-12.0109
▁reflection	-12.0109
▁concentrat	-12.011
mela	-12.011
▁slant	-12.011
▁Producer	-12.0111
▁Drew	-12.0111
roud	-12.0111
▁brick	-12.0112
▁loin	-12.0113
▁Nope	-12.0113
AIR	-12.0116
Xena	-12.0121
▁Pure	-12.0122
▁Case	-12.0123
▁contender	-12.0124
▁slacker	-12.0125
Indeed	-12.0125
▁pap	-12.0128
▁Mack	-12.0129
stock	-12.0131
lga	-12.0135
▁CAN	-12.0138
▁Earl	-12.0139
loft	-12.0148
Deranged	-12.0152
▁Bug	-12.0155
▁Pino	-12.0172
▁Tale	-12.018
rotic	-12.0189
ield	-12.0191
dependent	-12.0193
▁Dain	-12.0193
▁burl	-12.0193
▁Force	-12.021
▁Disc	-12.0217
▁elaborat	-12.0217
furthermore	-12.0218
▁disorient	-12.0221
▁interact	-12.0228
Basic	-12.0229
▁Finn	-12.024
▁junkie	-12.0241
▁1927	-12.0253
attle	-12.0256
BUM	-12.0257
▁pour	-12.0258
ARD	-12.0262
propel	-12.031
▁Toxi	-12.0316
Moreover	-12.0349
▁substitut	-12.035
Files	-12.0357
▁boil	-12.0375
avant	-12.0392
▁mumbl	-12.0398
▁spli	-12.0415
▁Law	-12.0417
▁Enni	-12.0418
iggs	-12.0431
▁peel	-12.0443
NOT	-12.0447
ccused	-12.0459
camp	-12.049
▁Spin	-12.0496
rnished	-12.0506
gasp	-12.0521
sanity	-12.0526
guil	-12.053
agne	-12.0535
among	-12.0538
nail	-12.0555
OOK	-12.0555
Ironside	-12.0561
cree	-12.0619
animate	-12.0625
▁Merr	-12.0678
animator	-12.068
deviant	-12.0709
wear	-12.0724
▁reserve	-12.0751
▁dominat	-12.0766
ruise	-12.0767
▁terroris	-12.0786
Space	-12.0811
struction	-12.084
investment	-12.0862
▁Fake	-12.0864
rugged	-12.0864
▁til	-12.087
MST	-12.0913
flicted	-12.0925
▁hipp	-12.0933
sistance	-12.0966
▁solv	-12.0985
obi	-12.1009
▁Gee	-12.1018
▁disapoint	-12.1026
lept	-12.1037
frey	-12.1039
uture	-12.1052
$#	-12.1099
▁glori	-12.1143
Laur	-12.1161
SION	-12.12
▁condo	-12.123
▁Unreal	-12.13
excus	-12.1342
coat	-12.1361
▁Lili	-12.1383
cum	-12.1445
▁bark	-12.1449
▁improbabl	-12.1466
outstanding	-12.1587
▁log	-12.1629
ppy	-12.1658
▁Jun	-12.1704
dditional	-12.1803
▁remak	-12.1896
▁animat	-12.1913
▁provin	-12.1932
climatic	-12.1962
tique	-12.1996
AX	-12.2025
arade	-12.2179
$$	-12.2182
talkie	-12.2371
▁inflict	-12.238
pression	-12.2475
duced	-12.2606
▁alternati	-12.2704
▁reincarnat	-12.2751
catching	-12.2827
▁cuc	-12.2893
avory	-12.2933
▁considerabl	-12.2953
▁Serv	-12.3004
rifter	-12.3021
stitute	-12.3036
atrical	-12.3039
controll	-12.3061
Quit	-12.3089
paste	-12.3103
create	-12.3103
▁occasion	-12.3132
▁error	-12.3143
▁baddie	-12.3146
▁critter	-12.3147
▁orchestra	-12.3148
atten	-12.3169
bsurd	-12.3197
Q	-12.3209
surge	-12.3213
emale	-12.3215
edric	-12.3236
▁stumbl	-12.3272
▁tortur	-12.3286
▁Columb	-12.3293
▁disappoint	-12.3304
▁Swo	-12.3304
onfident	-12.3306
direct	-12.331
claimed	-12.3318
explored	-12.3323
natural	-12.3325
Cross	-12.3325
CSI	-12.3325
Ryan	-12.3326
Heaven	-12.3326
BUT	-12.3326
strict	-12.3326
Pacific	-12.3327
Typical	-12.3327
believable	-12.3327
established	-12.3327
Queen	-12.3327
Quick	-12.3327
Box	-12.3328
Furthermore	-12.3328
WHY	-12.3328
honor	-12.3328
Scout	-12.3328
Claire	-12.3328
Nightbeast	-12.3328
Police	-12.3328
Family	-12.3329
Special	-12.3329
Bruno	-12.3329
meaning	-12.3329
Blue	-12.3329
pleasure	-12.3329
soldier	-12.3329
Actually	-12.3329
Charlie	-12.3329
winning	-12.3329
Hulk	-12.3329
born	-12.333
parody	-12.333
wreck	-12.333
Frank	-12.333
burger	-12.333
Apparently	-12.333
Kill	-12.333
Hannibal	-12.333
Alien	-12.333
Seriously	-12.333
bodies	-12.333
Halloween	-12.333
Mark	-12.333
mysterious	-12.333
possessed	-12.333
underground	-12.333
Hopper	-12.3331
drug	-12.3331
discover	-12.3331
George	-12.3331
Lombard	-12.3331
Himesh	-12.3331
violent	-12.3331
priest	-12.3331
accident	-12.3331
clever	-12.3331
hilarious	-12.3331
intended	-12.3331
important	-12.3331
period	-12.3331
Otherwise	-12.3331
value	-12.3331
Italian	-12.3331
footage	-12.3331
message	-12.3331
Hitchcock	-12.3331
support	-12.3331
Everything	-12.3331
pathetic	-12.3331
release	-12.3331
example	-12.3331
violence	-12.3332
okay	-12.3332
daughter	-12.3332
dialogue	-12.3332
family	-12.3332
terrible	-12.3332
girl	-12.3332
Something	-12.3332
▁Wonder	-12.3332
vampire	-12.3332
gnant	-12.3332
strong	-12.3333
Alas	-12.3334
unknown	-12.3334
least	-12.3334
Matt	-12.3334
free	-12.3335
▁figur	-12.3335
Jane	-12.3336
Eric	-12.334
IVI	-12.3342
▁overwhelm	-12.3349
▁HUNT	-12.3351
Walk	-12.3353
aunting	-12.3353
▁neglect	-12.3359
▁Produc	-12.336
▁retard	-12.3362
drive	-12.3369
▁craze	-12.3379
▁Israel	-12.3382
▁guilt	-12.3382
enig	-12.3384
▁Whit	-12.3388
▁impossibl	-12.3392
denominat	-12.3402
▁nostalgi	-12.3403
nterview	-12.3405
▁concoct	-12.3406
▁humiliat	-12.3406
▁populat	-12.3406
▁avail	-12.3406
serious	-12.3406
arbershop	-12.3407
uspicious	-12.3407
atellite	-12.3407
Character	-12.3407
ympathy	-12.3407
▁ponder	-12.3407
plies	-12.3407
atholic	-12.3408
▁coincide	-12.3408
pensive	-12.3408
▁apologi	-12.3408
raveyard	-12.3408
stitution	-12.3408
▁garb	-12.3408
▁Euro	-12.3408
mutilat	-12.3408
▁earlie	-12.3408
anguage	-12.3408
OOD	-12.3409
▁dynami	-12.3409
▁relations	-12.3409
Tuvalu	-12.3409
orrespond	-12.3409
▁Cochran	-12.3409
▁Democrat	-12.3409
▁Middle	-12.3409
▁SPACE	-12.3409
▁accompany	-12.3409
▁captivat	-12.3409
▁condescen	-12.3409
▁essay	-12.3409
▁falsify	-12.3409
▁fizz	-12.3409
▁grudge	-12.3409
▁optimis	-12.3409
▁overpower	-12.3409
▁rehearsal	-12.3409
@#$	-12.3409
Cinematography	-12.3409
Decapitron	-12.3409
Disappointing	-12.3409
Dreyfuss	-12.3409
Engineer	-12.3409
Essentially	-12.3409
Firefly	-12.3409
Leprechaun	-12.3409
Mohanlal	-12.3409
Pakistani	-12.3409
RECORD	-12.3409
Rodriguez	-12.3409
Sullivan	-12.3409
Tragic	-12.3409
Trainspotting	-12.3409
Unidentified	-12.3409
Untouchables	-12.3409
WATER	-12.3409
atriarch	-12.3409
comparatively	-12.3409
defects	-12.3409
discriminate	-12.3409
effectual	-12.3409
enaissance	-12.3409
heartwarming	-12.3409
ilosevic	-12.3409
osaurus	-12.3409
ostensibly	-12.3409
pprentice	-12.3409
privacy	-12.3409
rangutans	-12.3409
reservation	-12.3409
rguably	-12.3409
swoon	-12.3409
utomobiles	-12.3409
yndrome	-12.3409
▁1913	-12.3409
▁1929	-12.3409
▁1941	-12.3409
▁1961	-12.3409
▁1964	-12.3409
▁1974	-12.3409
▁2525	-12.3409
▁ALWAYS	-12.3409
▁Admiral	-12.3409
▁Alcatraz	-12.3409
▁Audience	-12.3409
▁Audrey	-12.3409
▁BETTER	-12.3409
▁Belmont	-12.3409
▁Braveheart	-12.3409
▁Britney	-12.3409
▁CHILD	-12.3409
▁COMING	-12.3409
▁CUJO	-12.3409
▁Cajun	-12.3409
▁Collection	-12.3409
▁Continu	-12.3409
▁Coscarelli	-12.3409
▁Creek	-12.3409
▁Criterion	-12.3409
▁DeathDream	-12.3409
▁Deschanel	-12.3409
▁Disappear	-12.3409
▁EXACTLY	-12.3409
▁EXORCIS	-12.3409
▁Entertainer	-12.3409
▁Evidence	-12.3409
▁Fitzgerald	-12.3409
▁Flambeau	-12.3409
▁Frantz	-12.3409
▁Grammar	-12.3409
▁Guevara	-12.3409
▁Gulpilil	-12.3409
▁Guttenburg	-12.3409
▁HUMAN	-12.3409
▁Haraldur	-12.3409
▁Hayworth	-12.3409
▁Hodges	-12.3409
▁Husband	-12.3409
▁Kashmir	-12.3409
▁Kutcher	-12.3409
▁Lincoln	-12.3409
▁Lundgren	-12.3409
▁Manhattan	-12.3409
▁Maribel	-12.3409
▁Mayarchuk	-12.3409
▁McBain	-12.3409
▁McDowell	-12.3409
▁Medusa	-12.3409
▁Military	-12.3409
▁Morricone	-12.3409
▁Motwani	-12.3409
▁Mountain	-12.3409
▁Netherlands	-12.3409
▁Nickelodeon	-12.3409
▁Nikki	-12.3409
▁OUCH	-12.3409
▁Odyssey	-12.3409
▁Opinion	-12.3409
▁Oprah	-12.3409
▁Palestinians	-12.3409
▁Philadelphia	-12.3409
▁Pinocchio	-12.3409
▁Pintauro	-12.3409
▁Plummer	-12.3409
▁Prisoners	-12.3409
▁Rangoon	-12.3409
▁Recommend	-12.3409
▁Reggi	-12.3409
▁Ritchie	-12.3409
▁Rothbart	-12.3409
▁Rugge	-12.3409
▁SCRAM	-12.3409
▁Saddle	-12.3409
▁Sanitarium	-12.3409
▁Schijf	-12.3409
▁Schilling	-12.3409
▁Schneider	-12.3409
▁Schreiber	-12.3409
▁Screenplay	-12.3409
▁Seinfeld	-12.3409
▁Siberia	-12.3409
▁Simonetti	-12.3409
▁Sinclair	-12.3409
▁Suddenly	-12.3409
▁Supreme	-12.3409
▁Sutek	-12.3409
▁TERRIBLE	-12.3409
▁Tavernier	-12.3409
▁Terminator	-12.3409
▁Thorpe	-12.3409
▁Titanic	-12.3409
▁Trailer	-12.3409
▁Travolta	-12.3409
▁Trust	-12.3409
▁Ultimate	-12.3409
▁Vengeance	-12.3409
▁Venice	-12.3409
▁Verghese	-12.3409
▁Violence	-12.3409
▁WARNED	-12.3409
▁Wharton	-12.3409
▁Wuhl	-12.3409
▁Zealand	-12.3409
▁abilities	-12.3409
▁abnormal	-12.3409
▁abortion	-12.3409
▁adjective	-12.3409
▁ambulance	-12.3409
▁approv	-12.3409
▁arbitrarily	-12.3409
▁arrangement	-12.3409
▁aspirations	-12.3409
▁assembl	-12.3409
▁assumption	-12.3409
▁basket	-12.3409
▁believability	-12.3409
▁bouncy	-12.3409
▁categoriz	-12.3409
▁civilians	-12.3409
▁clunker	-12.3409
▁coffee	-12.3409
▁comprehend	-12.3409
▁comprehension	-12.3409
▁comprehensive	-12.3409
▁compromis	-12.3409
▁concrete	-12.3409
▁connoisseur	-12.3409
▁contrivance	-12.3409
▁crayon	-12.3409
▁cripple	-12.3409
▁custody	-12.3409
▁deceptive	-12.3409
▁denouement	-12.3409
▁dessert	-12.3409
▁diminuti	-12.3409
▁disrespect	-12.3409
▁draft	-12.3409
▁duplicate	-12.3409
▁elucidat	-12.3409
▁enforcement	-12.3409
▁entitled	-12.3409
▁exaggerating	-12.3409
▁extraordinar	-12.3409
▁feminist	-12.3409
▁forgivable	-12.3409
▁fragment	-12.3409
▁friggin	-12.3409
▁galaxy	-12.3409
▁ghoul	-12.3409
▁glamorous	-12.3409
▁glamour	-12.3409
▁gruel	-12.3409
▁gymnast	-12.3409
▁happiness	-12.3409
▁havoc	-12.3409
▁hijack	-12.3409
▁histrionic	-12.3409
▁homoerotic	-12.3409
▁horrified	-12.3409
▁horrifying	-12.3409
▁hybrid	-12.3409
▁hypocrite	-12.3409
▁hypocritical	-12.3409
▁incessant	-12.3409
▁indifference	-12.3409
▁ineptitude	-12.3409
▁infomercial	-12.3409
▁intercourse	-12.3409
▁interrogation	-12.3409
▁invalid	-12.3409
▁invincible	-12.3409
▁jacket	-12.3409
▁lacklustre	-12.3409
▁lethargic	-12.3409
▁limousine	-12.3409
▁lobotom	-12.3409
▁mannequin	-12.3409
▁microwav	-12.3409
▁misplaced	-12.3409
▁misspelled	-12.3409
▁motorbike	-12.3409
▁muffled	-12.3409
▁narcotic	-12.3409
▁orphanage	-12.3409
▁orphaned	-12.3409
▁paraphras	-12.3409
▁parasite	-12.3409
▁patronizing	-12.3409
▁peanut	-12.3409
▁peculiar	-12.3409
▁pension	-12.3409
▁perpetrate	-12.3409
▁perpetual	-12.3409
▁pivot	-12.3409
▁plung	-12.3409
▁poverty	-12.3409
▁predominant	-12.3409
▁provoke	-12.3409
▁psychic	-12.3409
▁recollection	-12.3409
▁redneck	-12.3409
▁refuge	-12.3409
▁rekindl	-12.3409
▁reluctant	-12.3409
▁retrospect	-12.3409
▁rhyme	-12.3409
▁rickshaw	-12.3409
▁ritual	-12.3409
▁rumour	-12.3409
▁satisfaction	-12.3409
▁scramble	-12.3409
▁scrawny	-12.3409
▁sensibilities	-12.3409
▁servants	-12.3409
▁sledgehammer	-12.3409
▁stirring	-12.3409
▁stooge	-12.3409
▁strategic	-12.3409
▁suburbs	-12.3409
▁suffocat	-12.3409
▁sweeping	-12.3409
▁swipe	-12.3409
▁syphilis	-12.3409
▁tattoos	-12.3409
▁tedium	-12.3409
▁tepid	-12.3409
▁trump	-12.3409
▁uncaring	-12.3409
▁understatement	-12.3409
▁unengaging	-12.3409
▁unfinished	-12.3409
▁unimaginabl	-12.3409
▁uninvolv	-12.3409
▁unravel	-12.3409
▁unreasonable	-12.3409
▁unsettling	-12.3409
▁unsubtle	-12.3409
▁uplifting	-12.3409
▁vacuous	-12.3409
▁vanquish	-12.3409
▁vignette	-12.3409
▁violin	-12.3409
▁yourselves	-12.3409
Hostel	-12.3409
Mararía	-12.3409
steroids	-12.3409
urethra	-12.3409
▁1999	-12.3409
▁Bassett	-12.3409
▁Beatty	-12.3409
▁Blonde	-12.3409
▁Carniv	-12.3409
▁Chachi	-12.3409
▁Executioner	-12.3409
▁Hoffman	-12.3409
▁Morrissey	-12.3409
▁NEED	-12.3409
▁Surrealis	-12.3409
▁bigotry	-12.3409
▁defense	-12.3409
▁eagle	-12.3409
▁expound	-12.3409
▁grub	-12.3409
▁hypnoti	-12.3409
▁newscaster	-12.3409
▁pollute	-12.3409
▁sailor	-12.3409
▁schizophreni	-12.3409
▁shrink	-12.3409
▁stroke	-12.3409
▁tribal	-12.3409
▁waltz	-12.3409
▁watermelon	-12.3409
Arliss	-12.3409
Building	-12.3409
axalite	-12.3409
constru	-12.3409
enburg	-12.3409
ordinate	-12.3409
practice	-12.3409
stubborn	-12.3409
transcendent	-12.3409
}	-12.3409
▁'78	-12.3409
▁Fahey	-12.3409
▁HERE	-12.3409
▁KOM	-12.3409
▁Nancy	-12.3409
▁Paterno	-12.3409
▁Reeves	-12.3409
▁Revenge	-12.3409
▁acquire	-12.3409
▁agonizing	-12.3409
▁attorney	-12.3409
▁chamber	-12.3409
▁counterpart	-12.3409
▁cryptic	-12.3409
▁empti	-12.3409
▁envisioned	-12.3409
▁escalat	-12.3409
▁evangelist	-12.3409
▁immigrants	-12.3409
▁interminabl	-12.3409
▁jumbo	-12.3409
▁palace	-12.3409
▁pepper	-12.3409
▁puppy	-12.3409
▁retiring	-12.3409
▁sketchy	-12.3409
▁synth	-12.3409
▁totalitarian	-12.3409
alvert	-12.3409
zzling	-12.3409
▁#1	-12.3409
▁Benito	-12.3409
▁Cartoon	-12.3409
▁Hooper	-12.3409
▁Karlen	-12.3409
▁MOH	-12.3409
▁Nightmare	-12.3409
▁Totems	-12.3409
▁astounded	-12.3409
▁athlete	-12.3409
▁banned	-12.3409
▁fisherman	-12.3409
▁nutshell	-12.3409
▁penned	-12.3409
▁reversal	-12.3409
▁robberies	-12.3409
▁titillate	-12.3409
▁vulnerab	-12.3409
Jarmusch	-12.3409
WARNING	-12.3409
fetched	-12.3409
▁(2003)	-12.3409
▁Bauer	-12.3409
▁Custer	-12.3409
▁Generation	-12.3409
▁Kung	-12.3409
▁Nieman	-12.3409
▁Nurse	-12.3409
▁Pierce	-12.3409
▁TCM	-12.3409
▁Weaver	-12.3409
▁digress	-12.3409
▁disdain	-12.3409
▁drain	-12.3409
▁profile	-12.3409
▁purse	-12.3409
▁sparse	-12.3409
▁spoon	-12.3409
▁spouse	-12.3409
▁throne	-12.3409
▁vivid	-12.3409
▁Barker	-12.3409
▁Dunne	-12.3409
▁Finland	-12.3409
▁Greco	-12.3409
▁Milian	-12.3409
▁Neame	-12.3409
▁despicable	-12.3409
▁flounder	-12.3409
▁proverb	-12.3409
▁renamed	-12.3409
▁squid	-12.3409
▁stupor	-12.3409
▁Bowers	-12.3409
▁Cinder	-12.3409
▁Collins	-12.3409
▁Curry	-12.3409
▁Isaac	-12.3409
esquire	-12.3409
▁COP	-12.3409
▁Loeb	-12.3409
rabies	-12.3409
▁Welsh	-12.3409
▁aftermath	-12.3409
▁captive	-12.3409
▁deleted	-12.3409
▁devote	-12.3409
▁mutilation	-12.3409
▁Sterling	-12.3409
▁bleep	-12.3409
▁cooperat	-12.3409
▁repent	-12.3409
▁tacky	-12.3409
▁unwilling	-12.3409
ICU	-12.3409
mentalist	-12.3409
▁Adrien	-12.3409
▁Returns	-12.3409
▁bishop	-12.3409
▁Madden	-12.3409
▁bicker	-12.3409
▁inappropriate	-12.3409
extravagan	-12.3409
parodies	-12.3409
▁FAR	-12.3409
Winters	-12.3409
rumpy	-12.3409
▁Choi	-12.3409
▁nosedive	-12.3409
▁ABC	-12.3409
▁Swordsm	-12.3409
▁chunks	-12.3409
▁flares	-12.3409
▁heritage	-12.3409
▁motif	-12.3409
▁snobb	-12.3409
▁summarize	-12.3409
▁dynamics	-12.3409
▁procedur	-12.3409
▁unjustly	-12.3409
▁Ikeda	-12.3409
▁Quinn	-12.3409
▁overdose	-12.3409
colleagues	-12.3409
unofficial	-12.3409
▁Credit	-12.3409
▁horde	-12.3409
▁Doubt	-12.3409
▁disown	-12.3409
▁wistful	-12.3409
▁Snake	-12.3409
▁fading	-12.3409
▁insinuati	-12.3409
▁Mamet	-12.3409
▁mayhem	-12.3409
▁harri	-12.3409
▁overnight	-12.3409
▁sewer	-12.3409
FOX	-12.3409
▁(1979)	-12.3409
▁Kru	-12.3409
▁WIS	-12.3409
▁effortlessly	-12.3409
▁mourn	-12.3409
▁shunn	-12.3409
Hindi	-12.3409
▁cohesi	-12.3409
▁arnie	-12.3409
▁disclaimer	-12.3409
▁tube	-12.3409
Repeat	-12.3409
▁Boswell	-12.3409
▁disgr	-12.3409
▁elite	-12.3409
Jacque	-12.3409
▁Blockbuster	-12.3409
▁exude	-12.3409
▁CHA	-12.3409
▁plodding	-12.3409
▁surpasse	-12.3409
▁newcomer	-12.3409
▁eyeballs	-12.3409
▁grimac	-12.3409
LACK	-12.3409
ynchroni	-12.3409
▁WalMart	-12.3409
▁ease	-12.3409
▁carpet	-12.3409
▁brawl	-12.3409
▁iota	-12.3409
Pathetic	-12.3409
Stargate	-12.3409
▁impetu	-12.3409
skater	-12.3409
▁Atkins	-12.3409
▁mutilated	-12.3409
▁Jnr	-12.3409
▁shills	-12.3409
▁Weird	-12.3409
▁esteem	-12.3409
▁riot	-12.3409
▁implies	-12.3409
▁Underground	-12.3409
RIG	-12.3409
▁salvag	-12.3409
banana	-12.3409
raphic	-12.3409
▁Rising	-12.3409
▁identified	-12.3409
▁Arch	-12.3409
▁babbl	-12.3409
▁negate	-12.3409
vasive	-12.3409
▁torrent	-12.3409
xcerpt	-12.3409
▁Ark	-12.3409
▁Bugged	-12.3409
inished	-12.3409
▁Everett	-12.341
▁Blakeney	-12.341
▁integrated	-12.341
▁Merce	-12.341
▁Hubb	-12.341
▁pencil	-12.341
▁bolt	-12.341
▁paleontologist	-12.341
▁Chopp	-12.341
▁Silly	-12.341
▁iceberg	-12.341
▁creepiness	-12.341
▁sleigh	-12.341
▁prostitution	-12.341
▁entity	-12.341
▁admission	-12.341
▁endanger	-12.341
▁forbid	-12.341
▁constitute	-12.341
▁panties	-12.341
▁cement	-12.341
▁mockery	-12.341
werewolf	-12.341
▁ramble	-12.341
▁Dorens	-12.341
▁League	-12.341
▁NIGHT	-12.341
▁permission	-12.341
▁highbrow	-12.341
Apollo	-12.341
Student	-12.341
▁precis	-12.341
▁Point	-12.341
serving	-12.341
▁Ducks	-12.341
▁milk	-12.341
ommentary	-12.341
▁Roark	-12.341
▁pockets	-12.341
▁Week	-12.341
ercifully	-12.341
▁Wives	-12.341
(8.	-12.341
▁Chiba	-12.341
▁cliff	-12.341
olks	-12.341
ybil	-12.341
▁awry	-12.341
▁SHOW	-12.341
▁Spade	-12.341
▁Hann	-12.341
▁WOOD	-12.341
▁bulimi	-12.341
Writing	-12.341
▁prank	-12.3411
▁Reich	-12.3411
▁irk	-12.3411
▁armour	-12.3411
▁Glad	-12.3411
▁Elena	-12.3411
▁Wyn	-12.3411
▁cease	-12.3411
▁suave	-12.3411
▁Capita	-12.3411
▁ponderous	-12.3411
Animal	-12.3411
▁standpoint	-12.3411
▁maxim	-12.3411
2/5	-12.3411
▁hetero	-12.3411
▁Stump	-12.3411
▁silk	-12.3411
▁nastie	-12.3411
▁misunderstood	-12.3411
▁unsuit	-12.3411
▁Samuel	-12.3411
▁awakening	-12.3411
Wrong	-12.3411
hapless	-12.3411
▁orienta	-12.3411
▁campiness	-12.3411
utiny	-12.3411
▁Schary	-12.3411
▁promotion	-12.3412
▁Fantastic	-12.3412
▁2009	-12.3412
▁daft	-12.3412
▁sleepwalk	-12.3412
phobi	-12.3412
▁Raven	-12.3412
▁flabb	-12.3412
▁yuck	-12.3412
pstick	-12.3412
ctopus	-12.3412
▁spunk	-12.3412
▁stride	-12.3412
Shrek	-12.3412
▁Creep	-12.3412
▁Jord	-12.3412
▁pathos	-12.3412
▁Brell	-12.3412
▁Levy	-12.3412
▁vegeta	-12.3412
▁Awards	-12.3412
Raimi	-12.3413
Mercy	-12.3413
▁troy	-12.3413
▁authorities	-12.3413
Bernie	-12.3413
▁snip	-12.3413
izard	-12.3413
▁Ivan	-12.3413
▁choke	-12.3414
▁wench	-12.3414
▁lump	-12.3414
▁keen	-12.3414
▁SLU	-12.3414
▁Thandi	-12.3414
▁PIMPE	-12.3414
ucci	-12.3414
▁weld	-12.3414
▁emphasize	-12.3414
oliday	-12.3414
▁breed	-12.3415
meditation	-12.3415
Aryan	-12.3415
▁Francisc	-12.3415
▁Hilar	-12.3415
▁intolerabl	-12.3415
roblem	-12.3416
nspiring	-12.3416
RRY	-12.3416
Open	-12.3416
partisan	-12.3417
▁acclaim	-12.3418
▁Becke	-12.3418
ailies	-12.3418
ruddy	-12.342
▁McGu	-12.342
▁Acad	-12.342
EAT	-12.342
▁SHO	-12.342
evels	-12.3421
crotch	-12.3422
▁Burm	-12.3422
unstable	-12.3422
▁megal	-12.3423
atrix	-12.3423
ssip	-12.3423
elicate	-12.3423
hawk	-12.3423
Kai	-12.3423
▁Ramb	-12.3424
▁exemplifie	-12.3427
▁Odd	-12.3427
▁intersp	-12.3429
▁detect	-12.343
ogether	-12.343
Frankenstein	-12.3431
duct	-12.3433
Harve	-12.3434
ealous	-12.3435
stairs	-12.3435
ithun	-12.3436
▁crab	-12.3437
▁unimpress	-12.3437
▁steril	-12.3437
eputy	-12.344
appiest	-12.3441
ULT	-12.3442
ocoon	-12.3444
▁irredeemabl	-12.3445
illionaire	-12.3446
Weathers	-12.3448
▁Puri	-12.3449
▁Frederic	-12.3449
gadar	-12.3451
▁petrif	-12.3451
avage	-12.3453
capsul	-12.3458
1945	-12.346
wasti	-12.346
▁Berlin	-12.346
▁merc	-12.3461
ggressive	-12.3463
atically	-12.3464
knob	-12.3464
ICAL	-12.3466
▁Clif	-12.3467
IMO	-12.3467
griev	-12.3473
untle	-12.3475
ragon	-12.3476
8.3	-12.3477
▁ideolog	-12.3485
Wonderland	-12.3486
penny	-12.3501
Cult	-12.3513
reache	-12.3513
▁corr	-12.3514
▁LEA	-12.3515
INST	-12.3515
Etc	-12.3515
deception	-12.3522
ullets	-12.3523
Columbia	-12.3527
▁Slee	-12.3529
▁frickin	-12.3533
▁essen	-12.3536
▁Jerr	-12.3538
anski	-12.3538
eatballs	-12.3547
frank	-12.3549
Should	-12.3551
attire	-12.3561
▁abomina	-12.3564
mitten	-12.3568
▁deviate	-12.357
MSTied	-12.3584
View	-12.359
innac	-12.3605
1977	-12.3615
▁undress	-12.3626
Thumb	-12.3662
nsert	-12.3663
ttens	-12.3669
chwarzenegger	-12.368
references	-12.3742
Rapi	-12.3774
1932	-12.3804
impos	-12.3831
▁nann	-12.3841
gurt	-12.3844
sacre	-12.3851
current	-12.3878
Bloodsu	-12.3886
comparable	-12.3975
ittle	-12.3982
graduate	-12.3991
▁Jarm	-12.4047
tanic	-12.41
Strangely	-12.4138
▁deformit	-12.4139
▁chimpanzee	-12.4152
cheater	-12.4158
▁rescu	-12.4171
cue	-12.4172
▁producti	-12.4248
Human	-12.4256
▁enabl	-12.4311
▁classifi	-12.4327
▁repress	-12.4432
▁predictabl	-12.4456
▁Hawaii	-12.4606
▁McMa	-12.4807
thrilling	-12.481
▁Hamm	-12.4824
experienced	-12.4855
embodied	-12.4858
easel	-12.4972
ongratulations	-12.5009
two	-12.5011
▁smok	-12.5052
▁anticlima	-12.5099
2.5	-12.5155
eeks	-12.5189
nterestingly	-12.5227
2001	-12.5294
▁privilege	-12.5438
Roll	-12.5637
earning	-12.5703
privileged	-12.5775
▁dispos	-12.5809
▁Interesting	-12.5943
articles	-12.6087
xcuse	-12.621
dressing	-12.6269
▁inexperience	-12.6323
▁embodi	-12.6411
sapointment	-12.653
ECT	-12.6563
ruthfully	-12.6601
awaiian	-12.6713
clusive	-12.6962
builder	-12.7027
participants	-12.7293
▁revisi	-12.7338
▁surviv	-12.7451
▁troubl	-12.7468
▁concur	-12.7572
▁appeti	-12.7618
▁Complicati	-12.7708
nspired	-12.7747
stalker	-12.7811
▁margin	-12.7977
▁burge	-12.7995
ception	-12.7997
▁simp	-12.8057
Films	-12.8059
igator	-12.8085
rrested	-12.8188
ssault	-12.819
ppropriate	-12.8196
▁LIV	-12.8211
1/2	-12.8277
impressive	-12.8277
▁substanti	-12.8282
couraging	-12.8295
onflict	-12.8302
▁challeng	-12.8302
▁disturb	-12.8303
America	-12.8314
spoil	-12.8318
clima	-12.8324
PLEASE	-12.8326
Hollow	-12.8326
Major	-12.8326
Needless	-12.8326
Personally	-12.8326
Rebecca	-12.8326
intensity	-12.8326
▁Communis	-12.8326
WHAT	-12.8326
Class	-12.8326
▁sigh	-12.8327
appreciated	-12.8327
Forsyth	-12.8327
mistress	-12.8327
sophisticated	-12.8327
Batman	-12.8327
Think	-12.8327
Rememb	-12.8327
Hercules	-12.8328
Seaview	-12.8328
revolutionary	-12.8328
terrorist	-12.8328
SNL	-12.8328
Meanwhile	-12.8328
Original	-12.8328
Direction	-12.8328
inherit	-12.8328
interesting	-12.8328
Music	-12.8328
weapon	-12.8328
Daniel	-12.8329
hopefully	-12.8329
maniac	-12.8329
Adventure	-12.8329
President	-12.8329
warrior	-12.8329
pretending	-12.8329
Antoni	-12.8329
Percy	-12.8329
Woman	-12.8329
Julian	-12.8329
Merchant	-12.8329
Natalie	-12.8329
structure	-12.8329
Bush	-12.8329
accepted	-12.833
Sebastian	-12.833
intense	-12.833
Jennifer	-12.833
acceptable	-12.833
Cuba	-12.833
sympathetic	-12.833
è	-12.8409
{	-14.3252
^	-14.3253
£	-14.3254
́	-14.3255
q	-14.3256
